{
  "version": "1.0",
  "truncation": null,
  "padding": null,
  "added_tokens": [
    {
      "id": 0,
      "content": "[BOS]",
      "single_word": false,
      "lstrip": false,
      "rstrip": false,
      "normalized": false,
      "special": true
    },
    {
      "id": 1,
      "content": "[SEP]",
      "single_word": false,
      "lstrip": false,
      "rstrip": false,
      "normalized": false,
      "special": true
    },
    {
      "id": 2,
      "content": "[EOS]",
      "single_word": false,
      "lstrip": false,
      "rstrip": false,
      "normalized": false,
      "special": true
    },
    {
      "id": 3,
      "content": "[PAD]",
      "single_word": false,
      "lstrip": false,
      "rstrip": false,
      "normalized": false,
      "special": true
    }
  ],
  "normalizer": null,
  "pre_tokenizer": {
    "type": "ByteLevel",
    "add_prefix_space": false,
    "trim_offsets": true,
    "use_regex": true
  },
  "post_processor": null,
  "decoder": {
    "type": "ByteLevel",
    "add_prefix_space": true,
    "trim_offsets": true,
    "use_regex": true
  },
  "model": {
    "type": "BPE",
    "dropout": null,
    "unk_token": null,
    "continuing_subword_prefix": null,
    "end_of_word_suffix": null,
    "fuse_unk": false,
    "byte_fallback": false,
    "ignore_merges": false,
    "vocab": {
      "[BOS]": 0,
      "[SEP]": 1,
      "[EOS]": 2,
      "[PAD]": 3,
      "!": 4,
      "\"": 5,
      "%": 6,
      "'": 7,
      "(": 8,
      ")": 9,
      "+": 10,
      ",": 11,
      "-": 12,
      ".": 13,
      "/": 14,
      "0": 15,
      "1": 16,
      "2": 17,
      "3": 18,
      "4": 19,
      "5": 20,
      "6": 21,
      "7": 22,
      "8": 23,
      "9": 24,
      ":": 25,
      ";": 26,
      ">": 27,
      "?": 28,
      "A": 29,
      "B": 30,
      "C": 31,
      "D": 32,
      "E": 33,
      "F": 34,
      "G": 35,
      "H": 36,
      "I": 37,
      "J": 38,
      "K": 39,
      "L": 40,
      "M": 41,
      "N": 42,
      "O": 43,
      "P": 44,
      "Q": 45,
      "R": 46,
      "S": 47,
      "T": 48,
      "U": 49,
      "V": 50,
      "W": 51,
      "X": 52,
      "Z": 53,
      "[": 54,
      "]": 55,
      "a": 56,
      "b": 57,
      "c": 58,
      "d": 59,
      "e": 60,
      "f": 61,
      "g": 62,
      "h": 63,
      "i": 64,
      "j": 65,
      "k": 66,
      "l": 67,
      "m": 68,
      "n": 69,
      "o": 70,
      "p": 71,
      "q": 72,
      "r": 73,
      "s": 74,
      "t": 75,
      "u": 76,
      "v": 77,
      "w": 78,
      "x": 79,
      "y": 80,
      "z": 81,
      "¤": 82,
      "²": 83,
      "¶": 84,
      "¼": 85,
      "Â": 86,
      "Ã": 87,
      "â": 88,
      "Ġ": 89,
      "Ģ": 90,
      "Ħ": 91,
      "ĵ": 92,
      "ľ": 93,
      "Ł": 94,
      "en": 95,
      "er": 96,
      "ch": 97,
      "in": 98,
      "Ġd": 99,
      "st": 100,
      "ie": 101,
      "OS": 102,
      "ein": 103,
      "as": 104,
      "un": 105,
      "Ġs": 106,
      "Ġw": 107,
      "ei": 108,
      "Ġi": 109,
      "es": 110,
      "an": 111,
      "Ġein": 112,
      "el": 113,
      "ich": 114,
      ".[": 115,
      "Ġm": 116,
      "SE": 117,
      "Ġist": 118,
      "BOS": 119,
      "EOS": 120,
      "SEP": 121,
      "ra": 122,
      "Ġg": 123,
      "Ġb": 124,
      "Ġv": 125,
      "ern": 126,
      "?[": 127,
      "Ġdie": 128,
      "at": 129,
      "Ġz": 130,
      "ro": 131,
      "Ġa": 132,
      "mm": 133,
      "ut": 134,
      "Ġn": 135,
      "Ġdas": 136,
      "eh": 137,
      "Ġzu": 138,
      "ĠD": 139,
      "od": 140,
      "Ã¼": 141,
      "ell": 142,
      "ung": 143,
      "ig": 144,
      "on": 145,
      "ĠS": 146,
      "Ġun": 147,
      "icht": 148,
      "et": 149,
      "Ã¤": 150,
      "Ġk": 151,
      "or": 152,
      "ar": 153,
      "Ġ'": 154,
      "ĠM": 155,
      "Ġund": 156,
      "Ġf": 157,
      "Ġes": 158,
      "it": 159,
      "ach": 160,
      "ier": 161,
      "ĠL": 162,
      "Ġl": 163,
      "em": 164,
      "al": 165,
      "Ġh": 166,
      "ir": 167,
      "ĠE": 168,
      "gra": 169,
      "gramm": 170,
      "ind": 171,
      "rogramm": 172,
      "ĠP": 173,
      "ing": 174,
      "aten": 175,
      "ĠA": 176,
      "eit": 177,
      "sch": 178,
      "enn": 179,
      "Ġau": 180,
      "Ġwie": 181,
      "Ġder": 182,
      "ĠB": 183,
      "Ġver": 184,
      "ĠW": 185,
      "ann": 186,
      "au": 187,
      "Ã¼r": 188,
      "Ġdu": 189,
      "ernen": 190,
      "odell": 191,
      "iel": 192,
      "te": 193,
      "Ã¶": 194,
      "ĠDaten": 195,
      "ĠK": 196,
      "ĠT": 197,
      "ab": 198,
      "ĠF": 199,
      "der": 200,
      "um": 201,
      "kt": 202,
      "mp": 203,
      "Ġeine": 204,
      "eu": 205,
      "Ġsch": 206,
      "Ġbei": 207,
      "ge": 208,
      "erk": 209,
      "ion": 210,
      "ll": 211,
      "ichtig": 212,
      "lich": 213,
      "ft": 214,
      "omp": 215,
      "Ġbe": 216,
      "Ġich": 217,
      "de": 218,
      "ĠProgramm": 219,
      "ber": 220,
      "den": 221,
      "ĠG": 222,
      "ĠC": 223,
      "ĠN": 224,
      "Ġgut": 225,
      "Ġ(": 226,
      "oder": 227,
      "Ġin": 228,
      "ehr": 229,
      "ĠR": 230,
      "Ġan": 231,
      "Ġsind": 232,
      "ĠfÃ¼r": 233,
      "ur": 234,
      "Ġso": 235,
      "gen": 236,
      "il": 237,
      "etz": 238,
      "Was": 239,
      "Ġoder": 240,
      "Ġden": 241,
      "is": 242,
      "Ġnicht": 243,
      "Ġsie": 244,
      "ĠModell": 245,
      "omput": 246,
      "ĠComput": 247,
      "us": 248,
      "ten": 249,
      "Ġman": 250,
      "Ġdass": 251,
      "Ġviel": 252,
      "ernt": 253,
      "ĠI": 254,
      "ĠComputer": 255,
      "Ġo": 256,
      "Ġmach": 257,
      "Ġmit": 258,
      "ĠZ": 259,
      "ĠV": 260,
      "Ġum": 261,
      "ÃŁ": 262,
      "Ġda": 263,
      "Ġwichtig": 264,
      "Ġwenn": 265,
      "ech": 266,
      "Ġvon": 267,
      "eine": 268,
      "ess": 269,
      "Ġwir": 270,
      "ter": 271,
      "Ġkann": 272,
      "Ja": 273,
      "Ã¤r": 274,
      "ehen": 275,
      "ĠLernen": 276,
      "hn": 277,
      "eil": 278,
      "Ġneu": 279,
      "gt": 280,
      "ĠKI": 281,
      "hl": 282,
      "rain": 283,
      "sen": 284,
      "Ġgen": 285,
      "ungen": 286,
      "iert": 287,
      "Ġsehr": 288,
      "Ġkl": 289,
      "pas": 290,
      "ert": 291,
      "Ġauf": 292,
      "Ġt": 293,
      "Ġlernt": 294,
      "fach": 295,
      "eich": 296,
      "ĠSch": 297,
      "utz": 298,
      "ĠLern": 299,
      "ent": 300,
      "ehl": 301,
      "Ġaus": 302,
      "sten": 303,
      "Ġst": 304,
      "uf": 305,
      "Ġeinfach": 306,
      "unkt": 307,
      "Ich": 308,
      "ck": 309,
      "Ġerk": 310,
      "beit": 311,
      "Ã¤n": 312,
      "orm": 313,
      "ĠNetz": 314,
      "Wie": 315,
      "se": 316,
      "Ġsich": 317,
      "Ġverst": 318,
      "Ġer": 319,
      "ungs": 320,
      "ĠSp": 321,
      "programm": 322,
      "ehler": 323,
      "abe": 324,
      "sa": 325,
      "ieren": 326,
      "ĠEs": 327,
      "unktion": 328,
      "Ġgenau": 329,
      "keit": 330,
      "Ġhat": 331,
      "Ġvor": 332,
      "eg": 333,
      "bt": 334,
      "Ġr": 335,
      "uch": 336,
      "Ġwas": 337,
      "est": 338,
      "ls": 339,
      "ex": 340,
      "ĠEr": 341,
      "hr": 342,
      "lÃ¤r": 343,
      "esser": 344,
      "ĠIn": 345,
      "Ġdir": 346,
      "rob": 347,
      "Ã¼ber": 348,
      "isch": 349,
      "ron": 350,
      "Ġauch": 351,
      "ĠFehler": 352,
      "ation": 353,
      "ĠDas": 354,
      "ĠSt": 355,
      "rach": 356,
      "Ġlernen": 357,
      "Ein": 358,
      "imm": 359,
      "ĠAn": 360,
      "Ġbesser": 361,
      "aben": 362,
      "Ġj": 363,
      "Ġwird": 364,
      "ahl": 365,
      "Ġmacht": 366,
      "raining": 367,
      "geb": 368,
      "Ġbeim": 369,
      "stell": 370,
      "anz": 371,
      "Ġnur": 372,
      "mmen": 373,
      "arum": 374,
      "Ã¶n": 375,
      "ĠSprach": 376,
      "ĠEin": 377,
      "Ġnutz": 378,
      "nen": 379,
      "ĠAuf": 380,
      "mal": 381,
      "end": 382,
      "ort": 383,
      "ibt": 384,
      "Ġals": 385,
      "sp": 386,
      "Ġim": 387,
      "ol": 388,
      "Das": 389,
      "Ġoft": 390,
      "ĠSie": 391,
      "ĠÃ¼ber": 392,
      "mmer": 393,
      "Ġmir": 394,
      "och": 395,
      "Ġdein": 396,
      "Ġdem": 397,
      "her": 398,
      "up": 399,
      "Ġimmer": 400,
      "Ġeinem": 401,
      "ed": 402,
      "form": 403,
      "ĠH": 404,
      "Ġwer": 405,
      "Ġmein": 406,
      "ĠTraining": 407,
      "iv": 408,
      "Ġwerden": 409,
      "ĠGr": 410,
      "pt": 411,
      "roÃŁ": 412,
      "Ġfind": 413,
      "ĠkÃ¶n": 414,
      "Ġhil": 415,
      "Ġverstehen": 416,
      "fen": 417,
      "zu": 418,
      "ĠBei": 419,
      "elch": 420,
      "itt": 421,
      "lem": 422,
      "ste": 423,
      "roblem": 424,
      "ver": 425,
      "Ġam": 426,
      "ronal": 427,
      "Ġdann": 428,
      "ĠVer": 429,
      "Modell": 430,
      "daten": 431,
      "ĠgroÃŁ": 432,
      "spiel": 433,
      "Ġhilft": 434,
      "nell": 435,
      "asch": 436,
      "Ġge": 437,
      "nis": 438,
      "ĠDing": 439,
      "Ġschnell": 440,
      "ĠerklÃ¤r": 441,
      "rbeit": 442,
      "Ġbes": 443,
      "schie": 444,
      "ĠBil": 445,
      "ust": 446,
      "aschin": 447,
      "eht": 448,
      "ĠTex": 449,
      "ben": 450,
      "rauch": 451,
      "ĠAufg": 452,
      "fÃ¼r": 453,
      "Ġall": 454,
      "eth": 455,
      "Ġp": 456,
      "Ġviele": 457,
      "ethod": 458,
      "Ġmachen": 459,
      "rÃ¼": 460,
      "onder": 461,
      "Ãľ": 462,
      "Ġklein": 463,
      "ĠDinge": 464,
      "'?[": 465,
      "ag": 466,
      "modell": 467,
      "Ġsp": 468,
      "pass": 469,
      "rch": 470,
      "rÃ¶": 471,
      "formation": 472,
      "Ġaber": 473,
      "Ġdurch": 474,
      "ĠZahl": 475,
      "Die": 476,
      "Un": 477,
      "Wenn": 478,
      "and": 479,
      "ear": 480,
      "ĠInformation": 481,
      "Ġbrauch": 482,
      "Ã¶r": 483,
      "deut": 484,
      "oll": 485,
      "tw": 486,
      "Ġgibt": 487,
      "aschinell": 488,
      "Ġdes": 489,
      "Ġsoll": 490,
      "Ġfunktion": 491,
      "Ġrichtig": 492,
      "ĠBeispiel": 493,
      "igen": 494,
      "gebnis": 495,
      "ĠProblem": 496,
      "ĠEn": 497,
      "arbeit": 498,
      "Ġeinen": 499,
      "mit": 500,
      "Ġschl": 501,
      "omm": 502,
      "ĠkÃ¶nnen": 503,
      "Ġschw": 504,
      "ĠSo": 505,
      "Der": 506,
      "igkeit": 507,
      "Ġob": 508,
      "Ġerkenn": 509,
      "ĠErgebnis": 510,
      "bst": 511,
      "ri": 512,
      "atz": 513,
      "ĠInformationen": 514,
      "leich": 515,
      "Ġweil": 516,
      "eln": 517,
      "ĠO": 518,
      "Ġzw": 519,
      "Ġzei": 520,
      "Ġdamit": 521,
      "elche": 522,
      "ff": 523,
      "und": 524,
      "ang": 525,
      "Es": 526,
      "ohn": 527,
      "Ġmehr": 528,
      "schei": 529,
      "Warum": 530,
      "Ġent": 531,
      "ĠRe": 532,
      "ĠNeu": 533,
      "ĠVor": 534,
      "hne": 535,
      "rei": 536,
      "werk": 537,
      "ĠWas": 538,
      "Ġje": 539,
      "Ã¤t": 540,
      "ĠerklÃ¤ren": 541,
      "Programm": 542,
      "ning": 543,
      "rÃ¶ÃŁ": 544,
      "earning": 545,
      "ischen": 546,
      "ĠUn": 547,
      "uss": 548,
      "Ġbesonder": 549,
      "Ġnach": 550,
      "tell": 551,
      "ĠMethod": 552,
      "elohn": 553,
      "Ġlie": 554,
      "Ġbedeut": 555,
      "ĠComputerprogramm": 556,
      "ehir": 557,
      "Ġzum": 558,
      "Ġfunktioniert": 559,
      "Lernen": 560,
      "iz": 561,
      "Ġneue": 562,
      "ompl": 563,
      "ĠSchicht": 564,
      "Ã¤nd": 565,
      "ekt": 566,
      "Ġarbeit": 567,
      "echt": 568,
      "Er": 569,
      "ĠDie": 570,
      "Ġgel": 571,
      "aupt": 572,
      "Ġander": 573,
      "Ġhabe": 574,
      "ĠSprachmodell": 575,
      "Ġneuronal": 576,
      "Ġklar": 577,
      "Ġbedeutet": 578,
      "ik": 579,
      "ĠÃľ": 580,
      "enig": 581,
      "ĠFal": 582,
      "Ġnutzen": 583,
      "ast": 584,
      "os": 585,
      "re": 586,
      "immt": 587,
      "NN": 588,
      "ew": 589,
      "LU": 590,
      "ĠLearning": 591,
      "ĠZahlen": 592,
      "ehirn": 593,
      "le": 594,
      "Ġsein": 595,
      "ierung": 596,
      "ot": 597,
      "Ġverb": 598,
      "Ġnoch": 599,
      "ark": 600,
      "Ġbest": 601,
      "Ġges": 602,
      "ĠMaschinell": 603,
      "Ġtrain": 604,
      "wend": 605,
      "Ġsel": 606,
      "Ã¼n": 607,
      "Ġwenig": 608,
      "Ġeiner": 609,
      "Ġmich": 610,
      "Kann": 611,
      "Ġab": 612,
      "agt": 613,
      "rop": 614,
      "ahr": 615,
      "Ġdiese": 616,
      "ĠBelohn": 617,
      "ĠdafÃ¼r": 618,
      "Ġeines": 619,
      "hersa": 620,
      "Ġganz": 621,
      "Ġkompl": 622,
      "Ġohne": 623,
      "ĠTrainings": 624,
      "hen": 625,
      "ritt": 626,
      "yst": 627,
      "lichkeit": 628,
      "scheid": 629,
      "Ġ\"": 630,
      "Ġzusa": 631,
      "Ġhaben": 632,
      "Ġschon": 633,
      "erkmal": 634,
      "Ġwirk": 635,
      "Ġzeigt": 636,
      "ystem": 637,
      "passt": 638,
      "Ġzusammen": 639,
      "Ã¤ch": 640,
      "ĠWenn": 641,
      "Ġneuen": 642,
      "passen": 643,
      "Ġgelernt": 644,
      "echen": 645,
      "ĠLernprogramm": 646,
      "am": 647,
      "was": 648,
      "acht": 649,
      "Ġmuss": 650,
      "Ġbesonders": 651,
      "Ġselbst": 652,
      "wei": 653,
      "passung": 654,
      "Ġet": 655,
      "Ġbesten": 656,
      "ĠIch": 657,
      "Ġwirklich": 658,
      "klÃ¤r": 659,
      "liche": 660,
      "ormal": 661,
      "Ġetwas": 662,
      "',": 663,
      "funktion": 664,
      "ick": 665,
      "rad": 666,
      "ige": 667,
      "ĠMan": 668,
      "uper": 669,
      "Ganz": 670,
      "eist": 671,
      "Ist": 672,
      "Ġzwischen": 673,
      "abei": 674,
      "terschie": 675,
      "ĠText": 676,
      "ere": 677,
      "issen": 678,
      "ĠAufgabe": 679,
      "Sch": 680,
      "ĠBilder": 681,
      "uster": 682,
      "ommt": 683,
      "ap": 684,
      "ĠWie": 685,
      "Ġstark": 686,
      "ĠEinstell": 687,
      "echn": 688,
      "Ġfinden": 689,
      "upp": 690,
      "itte": 691,
      "ĠProgramme": 692,
      "Ġwelche": 693,
      "Ġbraucht": 694,
      "Ġerkennen": 695,
      "ring": 696,
      "rt": 697,
      "wert": 698,
      "ief": 699,
      "ĠReg": 700,
      "ĠTeil": 701,
      "ĠBild": 702,
      "esch": 703,
      "ĠRechen": 704,
      "ĠMuster": 705,
      "ĠHaupt": 706,
      "ill": 707,
      "ktiv": 708,
      "Ġind": 709,
      "Ġgeht": 710,
      "Ã¤hl": 711,
      "ĠVorhersa": 712,
      "terschied": 713,
      "Ġindem": 714,
      "ĠZeit": 715,
      "ĠGrupp": 716,
      "ĠReLU": 717,
      "anpassung": 718,
      "Ġkeine": 719,
      "ĠAus": 720,
      "Sie": 721,
      "Ġsuper": 722,
      "ĠAufgaben": 723,
      "op": 724,
      "Ġverschie": 725,
      "olut": 726,
      "Ġschneller": 727,
      "Kannst": 728,
      "Wo": 729,
      "ehe": 730,
      "Ġuns": 731,
      "radi": 732,
      "elt": 733,
      "fol": 734,
      "ias": 735,
      "ierungs": 736,
      "ĠlÃ¶": 737,
      "Stell": 738,
      "Gehirn": 739,
      "ken": 740,
      "ade": 741,
      "Ġseine": 742,
      "ierer": 743,
      "Ġwieder": 744,
      "Ġbek": 745,
      "ErklÃ¤r": 746,
      "erte": 747,
      "eiter": 748,
      "NNs": 749,
      "Ġwo": 750,
      "Ġgute": 751,
      "Ġsehen": 752,
      "utzt": 753,
      "ĠErgebnisse": 754,
      "ĠMethode": 755,
      "lar": 756,
      "ine": 757,
      "schein": 758,
      "Eine": 759,
      "ek": 760,
      "erade": 761,
      "Ġwar": 762,
      "Ġgleich": 763,
      "Ġnutzt": 764,
      "wendig": 765,
      "ahrschein": 766,
      "ommen": 767,
      "Ġmal": 768,
      "ez": 769,
      "etzwerk": 770,
      "men": 771,
      "aus": 772,
      "isierung": 773,
      "Ġbestimm": 774,
      "ĠTrainingsdaten": 775,
      "ĠPro": 776,
      "ĠArt": 777,
      "ĠNetze": 778,
      "ĠSchichten": 779,
      "ĠÃľber": 780,
      "ack": 781,
      "ee": 782,
      "ange": 783,
      "ĠgrÃ¶ÃŁ": 784,
      "ĠWÃ¶r": 785,
      "urz": 786,
      "usa": 787,
      "TM": 788,
      "Ġdabei": 789,
      "ĠMerkmal": 790,
      "om": 791,
      "Ġverschieden": 792,
      "art": 793,
      "itÃ¤t": 794,
      "),": 795,
      "id": 796,
      "ander": 797,
      "Ġvielen": 798,
      "coder": 799,
      "ding": 800,
      "eigen": 801,
      "ĠBelohnung": 802,
      "eren": 803,
      "stellen": 804,
      "Ġalle": 805,
      "arbeiten": 806,
      "Ġschwier": 807,
      "ritte": 808,
      "Ġwill": 809,
      "Ġschlecht": 810,
      "Ġjeden": 811,
      "Ġeigen": 812,
      "Ġdeine": 813,
      "Ġmeine": 814,
      "alt": 815,
      "he": 816,
      "tz": 817,
      "stÃ¤nd": 818,
      "ĠwÃ¼r": 819,
      "Ġgem": 820,
      "Ã¤hn": 821,
      "sam": 822,
      "ĠFall": 823,
      "eistung": 824,
      "ktivierungs": 825,
      "Ġdar": 826,
      "Ġihr": 827,
      "Ġgerade": 828,
      "Ġben": 829,
      "ari": 830,
      "ĠAntw": 831,
      "STM": 832,
      "Um": 833,
      "nit": 834,
      "solut": 835,
      "zel": 836,
      "Ġpass": 837,
      "abil": 838,
      "Lern": 839,
      "Ġschwer": 840,
      "ĠWÃ¶rter": 841,
      ")?[": 842,
      "einander": 843,
      "lichen": 844,
      "ĠNeuron": 845,
      "Ã¼nst": 846,
      "bed": 847,
      "fitt": 848,
      "unden": 849,
      "ĠAktivierungs": 850,
      "usammen": 851,
      "zeit": 852,
      "Als": 853,
      "ran": 854,
      "vor": 855,
      "enau": 856,
      "Ġdich": 857,
      "Ã¶g": 858,
      "rÃ¼f": 859,
      "ĠEinstellungen": 860,
      "Man": 861,
      "tscheid": 862,
      "zeu": 863,
      "ĠBer": 864,
      "Ġsollte": 865,
      "bar": 866,
      "lt": 867,
      "ĠÃ¤hn": 868,
      "ĠGruppen": 869,
      "ĠwÃ¼rde": 870,
      "fitting": 871,
      "aut": 872,
      "Ġsagt": 873,
      "Ġdies": 874,
      "ĠSystem": 875,
      "Ġhin": 876,
      "ĠAnf": 877,
      "ĠTexte": 878,
      "Ġbin": 879,
      "ĠfÃ¼": 880,
      "Ġhast": 881,
      "ĠWert": 882,
      "ĠVort": 883,
      "Ġwichtige": 884,
      "ĠSprache": 885,
      "ĠSoft": 886,
      "out": 887,
      "erat": 888,
      "ĠEing": 889,
      "ĠTest": 890,
      "ĠSchritt": 891,
      "ĠEntscheid": 892,
      "ewicht": 893,
      "ropout": 894,
      "ĠVorhersagen": 895,
      "such": 896,
      "Ã¼ck": 897,
      "ĠAb": 898,
      "Ġkompliz": 899,
      "heit": 900,
      "lernen": 901,
      "alten": 902,
      "ĠModells": 903,
      "ĠgroÃŁe": 904,
      "rÃ¶ÃŁe": 905,
      "nitzel": 906,
      "ax": 907,
      "wind": 908,
      "Ġkleine": 909,
      "Ã¤nder": 910,
      "ĠNetzwerk": 911,
      "Ġspez": 912,
      "Ġandere": 913,
      "ĠRegeln": 914,
      "![": 915,
      "bau": 916,
      "zent": 917,
      "inn": 918,
      "elfen": 919,
      "Ġfest": 920,
      "Ġbeste": 921,
      "Ab": 922,
      "gabe": 923,
      "ug": 924,
      "enden": 925,
      "atch": 926,
      "Ġauswendig": 927,
      "ĠUnterschied": 928,
      "ĠMaschinellen": 929,
      "radient": 930,
      "Ġpassiert": 931,
      "ĠVorteil": 932,
      "ger": 933,
      "im": 934,
      "ien": 935,
      "rage": 936,
      "ĠLSTM": 937,
      "Ġhelfen": 938,
      "ĠAktivierungsfunktion": 939,
      "'.": 940,
      "eisten": 941,
      "alsch": 942,
      "ĠIst": 943,
      "eichen": 944,
      "ĠMethoden": 945,
      "chmal": 946,
      "erne": 947,
      "Ġnormal": 948,
      "Ġfalsch": 949,
      "ĠKatz": 950,
      "ĠRei": 951,
      "Ġeinfacher": 952,
      "Ġfinde": 953,
      "Ġarbeiten": 954,
      "Ġverbess": 955,
      "ahrscheinlichkeit": 956,
      "hÃ¤n": 957,
      "nte": 958,
      "ass": 959,
      "Ġson": 960,
      "ĠFre": 961,
      "ĠSchnitzel": 962,
      "Ġstabil": 963,
      "ische": 964,
      "verfitting": 965,
      "ĠgroÃŁen": 966,
      "rans": 967,
      "prob": 968,
      "âĢ": 969,
      "ĠâĢ": 970,
      "Ġwarum": 971,
      "Ġweiter": 972,
      "eiÃŁ": 973,
      "Ġmerk": 974,
      "ĠKon": 975,
      "ĠFalt": 976,
      "ĠâĢĵ": 977,
      "ze": 978,
      "Ġbau": 979,
      "elle": 980,
      "Ġkleiner": 981,
      "arbeitet": 982,
      "Du": 983,
      "Wert": 984,
      "ht": 985,
      "Ã¤ll": 986,
      "ennt": 987,
      "bind": 988,
      "ĠDer": 989,
      "ions": 990,
      "gesch": 991,
      "ĠwÃ¤r": 992,
      "ĠWichtig": 993,
      "Ġverstehe": 994,
      "ĠProbleme": 995,
      "ĠNeuronal": 996,
      "folge": 997,
      "ĠlÃ¶sen": 998,
      "Ġspeziel": 999,
      ").": 1000,
      "Re": 1001,
      "fl": 1002,
      "Ġverh": 1003,
      "weise": 1004,
      "'.[": 1005,
      "]'": 1006,
      "jekt": 1007,
      "voll": 1008,
      "ĠArbeit": 1009,
      "Ġbesch": 1010,
      "telligen": 1011,
      "Klar": 1012,
      "hm": 1013,
      "tra": 1014,
      "unde": 1015,
      "ĠSig": 1016,
      "Ġtrainiert": 1017,
      "Ġbenutzt": 1018,
      "Bias": 1019,
      "lau": 1020,
      "Ġwur": 1021,
      "orten": 1022,
      "itiv": 1023,
      "mpt": 1024,
      "ĠModelle": 1025,
      "ĠZusammen": 1026,
      "Ġversteht": 1027,
      "Ġja": 1028,
      "Ġalles": 1029,
      "Ġarbeitet": 1030,
      "Ġverschiedene": 1031,
      "Ver": 1032,
      "ffen": 1033,
      "ost": 1034,
      "Ġher": 1035,
      "schritte": 1036,
      "usst": 1037,
      "Ġsicher": 1038,
      "ĠGrund": 1039,
      "Daten": 1040,
      "KI": 1041,
      "dern": 1042,
      "Ġpasst": 1043,
      "Ġeinmal": 1044,
      "ram": 1045,
      "Ġlange": 1046,
      "Ġschlech": 1047,
      "Bei": 1048,
      "bungs": 1049,
      "dem": 1050,
      "ru": 1051,
      "ĠLeistung": 1052,
      "Ġweniger": 1053,
      "ĠMerkmale": 1054,
      "eut": 1055,
      "enz": 1056,
      "Ġunter": 1057,
      "Ġkon": 1058,
      "Ġkurz": 1059,
      "ĠWahrscheinlichkeit": 1060,
      "ptim": 1061,
      "Ġanderen": 1062,
      "Ġbestimmte": 1063,
      "Sp": 1064,
      "lei": 1065,
      "enerat": 1066,
      "Ã¤s": 1067,
      "Ġeinfache": 1068,
      "Ġneuronalen": 1069,
      "Schicht": 1070,
      "ĠReihen": 1071,
      "telligenz": 1072,
      "ckt": 1073,
      "ĠJ": 1074,
      "ĠnÃ¤ch": 1075,
      "ĠDu": 1076,
      "dee": 1077,
      "ĠIntelligenz": 1078,
      "Ãľber": 1079,
      "ommes": 1080,
      "Ġgesagt": 1081,
      "ĠwÃ¤re": 1082,
      "ha": 1083,
      "oost": 1084,
      "wick": 1085,
      "ensch": 1086,
      "Ġsa": 1087,
      "Ã¼tz": 1088,
      "ĠWissen": 1089,
      "Ġdazu": 1090,
      "Ġneuronales": 1091,
      "Ġgemacht": 1092,
      "probieren": 1093,
      "ĠFaltungs": 1094,
      "bindungen": 1095,
      "max": 1096,
      "satz": 1097,
      "ual": 1098,
      "yp": 1099,
      "Ġihn": 1100,
      "iere": 1101,
      "ĠPommes": 1102,
      "ĠTrans": 1103,
      "Ġdara": 1104,
      "Ġgenug": 1105,
      "ĠBereich": 1106,
      "Absolut": 1107,
      "An": 1108,
      "In": 1109,
      "ler": 1110,
      "ingt": 1111,
      "essen": 1112,
      "Ġvorher": 1113,
      "ĠkÃ¶nnte": 1114,
      "ĠMaschinelles": 1115,
      "Ġtrainieren": 1116,
      "WofÃ¼r": 1117,
      "zeitig": 1118,
      "ĠfÃ¼hr": 1119,
      "Ã¤ndert": 1120,
      "Welche": 1121,
      "gehen": 1122,
      "esonder": 1123,
      "Ġmeisten": 1124,
      "ellen": 1125,
      "Ġkommt": 1126,
      "ord": 1127,
      "ĠBe": 1128,
      "ĠWerte": 1129,
      "etzt": 1130,
      "ĠNetzen": 1131,
      "opp": 1132,
      "ĠKatzen": 1133,
      "Gibt": 1134,
      "gaben": 1135,
      "lung": 1136,
      "mo": 1137,
      "ÃĦ": 1138,
      "Ġeinz": 1139,
      "Ã¤u": 1140,
      "ĠWeg": 1141,
      "iele": 1142,
      "ĠInf": 1143,
      "Ġbekommt": 1144,
      "eep": 1145,
      "Ġsondern": 1146,
      "fÃ¼": 1147,
      "Ġnutze": 1148,
      "ĠAntworten": 1149,
      "windigkeit": 1150,
      "ĠLSTMs": 1151,
      "Ġverhind": 1152,
      "poch": 1153,
      "Ġecht": 1154,
      "enk": 1155,
      "Ġblei": 1156,
      "Ã¼s": 1157,
      "arte": 1158,
      "ĠKÃ¼nst": 1159,
      "urch": 1160,
      "Ã¤rk": 1161,
      "Ġtun": 1162,
      "eicher": 1163,
      "zentr": 1164,
      "ĠFreund": 1165,
      "Mein": 1166,
      "Pro": 1167,
      "Reg": 1168,
      "St": 1169,
      "lo": 1170,
      "ohl": 1171,
      "reu": 1172,
      "att": 1173,
      "ĠnÃ¼tz": 1174,
      "Ã¤lt": 1175,
      "Ġlang": 1176,
      "Ġmachst": 1177,
      "Ã¤ngt": 1178,
      "Ġre": 1179,
      "Ġerkennt": 1180,
      "Ġliegt": 1181,
      "scheidet": 1182,
      "Ġschwierig": 1183,
      "En": 1184,
      "gr": 1185,
      "hem": 1186,
      "war": 1187,
      "Ġech": 1188,
      "ĠBesonder": 1189,
      "ĠGer": 1190,
      "gent": 1191,
      "ĠStell": 1192,
      "ĠAnfang": 1193,
      "ĠReihenfolge": 1194,
      "Genau": 1195,
      "Training": 1196,
      "ay": 1197,
      "prop": 1198,
      "Ġgeh": 1199,
      "Ġversuch": 1200,
      "Ġwichtigsten": 1201,
      "Modelle": 1202,
      "twick": 1203,
      "ĠgrÃ¶ÃŁte": 1204,
      "propag": 1205,
      "AN": 1206,
      "Overfitting": 1207,
      "aff": 1208,
      "ull": 1209,
      "erst": 1210,
      "angen": 1211,
      "Ġbevor": 1212,
      "Ġdenen": 1213,
      "ĠSchw": 1214,
      "ĠÃľberanpassung": 1215,
      "ĠWichtigste": 1216,
      "propagation": 1217,
      "enten": 1218,
      "annt": 1219,
      "Ġbeein": 1220,
      "urv": 1221,
      "eicht": 1222,
      "Ġfindet": 1223,
      ").[": 1224,
      "gleich": 1225,
      "ĠwÃ¤hl": 1226,
      "Ġmaschinell": 1227,
      "Ġber": 1228,
      "Ġnimmt": 1229,
      "ĠDropout": 1230,
      "ode": 1231,
      "Ġfert": 1232,
      "emp": 1233,
      "ĠBau": 1234,
      "ĠGenerat": 1235,
      "etzen": 1236,
      "reihen": 1237,
      "Ġneuronale": 1238,
      "ĠÃľbungs": 1239,
      "ackpropagation": 1240,
      "stÃ¤ndig": 1241,
      "Ġkonzentr": 1242,
      "ip": 1243,
      "lein": 1244,
      "mbed": 1245,
      "wohl": 1246,
      "assen": 1247,
      "Ġzur": 1248,
      "Ġverarbeiten": 1249,
      "ĠGrunde": 1250,
      "Ġgeb": 1251,
      "ewichte": 1252,
      "ĠInfos": 1253,
      "ware": 1254,
      "mbedding": 1255,
      "for": 1256,
      "erf": 1257,
      "Ã¤hr": 1258,
      "ard": 1259,
      "ĠBest": 1260,
      "ĠWort": 1261,
      "ĠGAN": 1262,
      "Ġange": 1263,
      "ĠZu": 1264,
      "ĠEine": 1265,
      "rÃ¶ding": 1266,
      "Ġentwick": 1267,
      "apel": 1268,
      "Ġgleichzeitig": 1269,
      "ĠÃ¤hnlich": 1270,
      "Ġkompliziert": 1271,
      "moid": 1272,
      "rÃ¶dinger": 1273,
      "wand": 1274,
      "erv": 1275,
      "erten": 1276,
      "Ġsor": 1277,
      "rate": 1278,
      "ĠBias": 1279,
      "Ġverl": 1280,
      "Ġmache": 1281,
      "Ġbrauchen": 1282,
      "ĠOptim": 1283,
      "Ġzeigen": 1284,
      "ositiv": 1285,
      "Ġkomplex": 1286,
      "ringt": 1287,
      "ĠTeile": 1288,
      "ĠFreundin": 1289,
      "Aus": 1290,
      "Normal": 1291,
      "akt": 1292,
      "aram": 1293,
      "gung": 1294,
      "len": 1295,
      "ne": 1296,
      "netzwerk": 1297,
      "Ġbis": 1298,
      "Ġtief": 1299,
      "Ġerst": 1300,
      "gebung": 1301,
      "Ġgegen": 1302,
      "Ã¤ndern": 1303,
      "geschwindigkeit": 1304,
      "Ãľberanpassung": 1305,
      "aramet": 1306,
      "Merkmal": 1307,
      "eder": 1308,
      "sig": 1309,
      "Ġte": 1310,
      "Ã¶ch": 1311,
      "Ġnichts": 1312,
      "Ġmanchmal": 1313,
      "Ġalso": 1314,
      "Ġgew": 1315,
      "ĠprÃ¼": 1316,
      "ĠSprachmodellen": 1317,
      "weis": 1318,
      "Ġihre": 1319,
      "arianz": 1320,
      "ĠSoftware": 1321,
      "Ġverbessern": 1322,
      "eiÃŁt": 1323,
      "ReLU": 1324,
      "ĠSigmoid": 1325,
      "Ġheraus": 1326,
      "urve": 1327,
      "CA": 1328,
      "FÃ¼r": 1329,
      "ad": 1330,
      "kenn": 1331,
      "og": 1332,
      "rÃ¤": 1333,
      "Ġprogramm": 1334,
      "Ġmag": 1335,
      "ĠKaff": 1336,
      "ĠProgrammieren": 1337,
      "ĠGehirn": 1338,
      "ĠGradient": 1339,
      "ĠRNNs": 1340,
      "Ġjed": 1341,
      "geben": 1342,
      "former": 1343,
      "Ġjede": 1344,
      "ĠBildern": 1345,
      "ĠPrompt": 1346,
      "Umgebung": 1347,
      "ĠnÃ¼tzlich": 1348,
      "arameter": 1349,
      "lust": 1350,
      "Ġlerne": 1351,
      "Ġsieht": 1352,
      "Ġkannst": 1353,
      "ustand": 1354,
      "Ġkleinen": 1355,
      "Ã¶rt": 1356,
      "ĠAusprobieren": 1357,
      "ordn": 1358,
      "Neu": 1359,
      "ling": 1360,
      "sehen": 1361,
      "wenden": 1362,
      "Ġex": 1363,
      "Ġwissen": 1364,
      "all": 1365,
      "ĠTe": 1366,
      "riff": 1367,
      "echnet": 1368,
      "Ġdieser": 1369,
      "fort": 1370,
      "rung": 1371,
      "ĠmÃ¶g": 1372,
      "ĠAber": 1373,
      "ĠFrage": 1374,
      "Ġanpassen": 1375,
      "ĠAufbau": 1376,
      "ĠBeispiele": 1377,
      "scheiden": 1378,
      "reiben": 1379,
      "Ġverbunden": 1380,
      "ĠWahrscheinlichkeiten": 1381,
      "oosting": 1382,
      "Agent": 1383,
      "Kon": 1384,
      "Nein": 1385,
      "eat": 1386,
      "ĠQ": 1387,
      "Ġvom": 1388,
      "uto": 1389,
      "Ġnennt": 1390,
      "Ġverarbeitet": 1391,
      "Ã¶s": 1392,
      "ĠFÃ¼r": 1393,
      "ĠIdee": 1394,
      "ĠLerngeschwindigkeit": 1395,
      "ĠVerbindungen": 1396,
      "Ġpositiv": 1397,
      "Ġzwei": 1398,
      "Ġentscheidet": 1399,
      "ĠBelohnungen": 1400,
      "ĠlÃ¶st": 1401,
      "Lernprogramm": 1402,
      "opping": 1403,
      "Ã¤uft": 1404,
      "Ã¤hrend": 1405,
      "ĠKaffee": 1406,
      "'-": 1407,
      "Auf": 1408,
      "Epoch": 1409,
      "Meine": 1410,
      "Netzwerk": 1411,
      "Problem": 1412,
      "grÃ¶ÃŁe": 1413,
      "ist": 1414,
      "ly": 1415,
      "Ġihm": 1416,
      "ank": 1417,
      "anden": 1418,
      "Ġnie": 1419,
      "Ġneh": 1420,
      "arly": 1421,
      "ĠMein": 1422,
      "Ġverm": 1423,
      "ĠWarum": 1424,
      "ĠCode": 1425,
      "Ġanpasst": 1426,
      "ure": 1427,
      "ilter": 1428,
      "ĠZiel": 1429,
      "ĠStopping": 1430,
      "stellungen": 1431,
      "Ġfunktionieren": 1432,
      "arbeitung": 1433,
      "ffiz": 1434,
      "ekte": 1435,
      "ĠProjekt": 1436,
      "Ġeigent": 1437,
      "ĠTestdaten": 1438,
      "rukt": 1439,
      "GrÃ¶ÃŁe": 1440,
      "ak": 1441,
      "gem": 1442,
      "mat": 1443,
      "ĠmÃ¼s": 1444,
      "ĠPrÃ¼f": 1445,
      "ĠBatch": 1446,
      "ĠWahl": 1447,
      "licher": 1448,
      "Ġ('": 1449,
      "etze": 1450,
      "Ġstimmt": 1451,
      "Ã¤nger": 1452,
      "Ġmeiner": 1453,
      "ethode": 1454,
      "rix": 1455,
      "Ã¤tz": 1456,
      "ĠEingabe": 1457,
      "Ġschlechter": 1458,
      "mbeddings": 1459,
      "Normalisierung": 1460,
      "Ġvermei": 1461,
      "ges": 1462,
      "halten": 1463,
      "ĠwÃ¤hrend": 1464,
      "ĠDann": 1465,
      "ĠMach": 1466,
      "ĠheiÃŁt": 1467,
      "ĠProgrammierer": 1468,
      "Ġgenauer": 1469,
      "Ġperf": 1470,
      "ĠEnde": 1471,
      "Ġlieb": 1472,
      "otal": 1473,
      "bedingt": 1474,
      "ĠEntscheidungen": 1475,
      "Ġmerken": 1476,
      "ĠTransformer": 1477,
      "Ġlangsam": 1478,
      "Im": 1479,
      "ct": 1480,
      "ide": 1481,
      "la": 1482,
      "rig": 1483,
      "Ġ1": 1484,
      "Ġpassen": 1485,
      "Ġal": 1486,
      "Ġunbedingt": 1487,
      "Ã¤uf": 1488,
      "ĠAuto": 1489,
      "Ġschau": 1490,
      "Ġanf": 1491,
      "isst": 1492,
      "ĠLernrate": 1493,
      "Ġdeiner": 1494,
      "ĠgroÃŁes": 1495,
      "ĠUnd": 1496,
      "radienten": 1497,
      "Ġspezielle": 1498,
      "ĠBedeut": 1499,
      "eature": 1500,
      "Batch": 1501,
      "Funktion": 1502,
      "ib": 1503,
      "zer": 1504,
      "iefen": 1505,
      "Ġdiesen": 1506,
      "ĠSit": 1507,
      "Ġkenn": 1508,
      "ierst": 1509,
      "ĠLÃ¶s": 1510,
      "Ġho": 1511,
      "ĠProgramms": 1512,
      "Ġwichtigen": 1513,
      "Ã¤rken": 1514,
      "Ġtotal": 1515,
      "ĠStapel": 1516,
      "Ġjeder": 1517,
      "Ġlief": 1518,
      "wendet": 1519,
      "Wozu": 1520,
      "Ġsagen": 1521,
      "ayer": 1522,
      "RU": 1523,
      "amm": 1524,
      "dam": 1525,
      "parameter": 1526,
      "sicht": 1527,
      "ts": 1528,
      "uation": 1529,
      "ĠÃĦ": 1530,
      "ende": 1531,
      "inear": 1532,
      "Ġzuerst": 1533,
      "ĠML": 1534,
      "ĠMensch": 1535,
      "scha": 1536,
      "auf": 1537,
      "ÃŁe": 1538,
      "Ġgenutzt": 1539,
      "stellt": 1540,
      "Modellen": 1541,
      "Programme": 1542,
      "ĠSoftmax": 1543,
      "Ġbauen": 1544,
      "matrix": 1545,
      "Ġliebsten": 1546,
      "ĠSituation": 1547,
      "Gewichte": 1548,
      "effiz": 1549,
      "merk": 1550,
      "ular": 1551,
      "ens": 1552,
      "stehen": 1553,
      "Ġwelch": 1554,
      "Ġkommen": 1555,
      "ĠMus": 1556,
      "ĠPl": 1557,
      "schritt": 1558,
      "Ġbew": 1559,
      "ĠProgrammen": 1560,
      "Ġerzeu": 1561,
      "ĠVerlust": 1562,
      "rÃ¼ck": 1563,
      "SchrÃ¶dinger": 1564,
      "iefes": 1565,
      "ĠAntwort": 1566,
      "ĠfÃ¼hren": 1567,
      "Ġechten": 1568,
      "ĠMusik": 1569,
      "System": 1570,
      "bot": 1571,
      "if": 1572,
      "ient": 1573,
      "line": 1574,
      "nal": 1575,
      "sÃ¤ch": 1576,
      "wie": 1577,
      "zin": 1578,
      "ieb": 1579,
      "Ġunb": 1580,
      "ĠKann": 1581,
      "ĠFunktion": 1582,
      "ĠGe": 1583,
      "ĠZeichen": 1584,
      "Ġwichtiger": 1585,
      "ĠLernmodell": 1586,
      "Ġdirekt": 1587,
      "verarbeitung": 1588,
      "ĠOhne": 1589,
      "Ġbestimmt": 1590,
      "altung": 1591,
      "ĠEingaben": 1592,
      "Ġdaraus": 1593,
      "Ġbeeinfl": 1594,
      "ularisierung": 1595,
      "Welch": 1596,
      "fahr": 1597,
      "hang": 1598,
      "ial": 1599,
      "kommen": 1600,
      "karte": 1601,
      "ering": 1602,
      "ĠmÃ¶ch": 1603,
      "ativ": 1604,
      "ett": 1605,
      "ierte": 1606,
      "ĠhÃ¤ngt": 1607,
      "ĠGenau": 1608,
      "Ġinn": 1609,
      "isk": 1610,
      "Ġjem": 1611,
      "Ġgef": 1612,
      "ĠTexten": 1613,
      "rim": 1614,
      "ĠAusgabe": 1615,
      "ĠZusammenhang": 1616,
      "Ã¤sst": 1617,
      "ĠnÃ¤chsten": 1618,
      "ĠprÃ¼fen": 1619,
      "ĠAutoen": 1620,
      "ĠmÃ¶chte": 1621,
      "Deep": 1622,
      "Res": 1623,
      "find": 1624,
      "zahl": 1625,
      "ĠÃ¤ndern": 1626,
      "rat": 1627,
      "iger": 1628,
      "oren": 1629,
      "Ġfl": 1630,
      "Ġfast": 1631,
      "ĠlÃ¤uft": 1632,
      "ĠhÃ¶r": 1633,
      "Ã¶t": 1634,
      "ĠFehl": 1635,
      "Ġgutes": 1636,
      "ĠComputern": 1637,
      "Ġumgehen": 1638,
      "Ġrie": 1639,
      "ĠVorgaben": 1640,
      "ĠLernprogramme": 1641,
      "Ġunser": 1642,
      "ErklÃ¤re": 1643,
      "hÃ¤ngen": 1644,
      "Ġwurde": 1645,
      "Ġwurden": 1646,
      "Regularisierung": 1647,
      "Ġversucht": 1648,
      "Ġkonzentrieren": 1649,
      "Ġangepasst": 1650,
      "ĠOptimierer": 1651,
      "ĠmÃ¶glich": 1652,
      "Ġeigentlich": 1653,
      "ĠmÃ¼ssen": 1654,
      "zerrung": 1655,
      "ĠGenauigkeit": 1656,
      "Dropout": 1657,
      "Gradient": 1658,
      "Kurz": 1659,
      "Oh": 1660,
      "Weil": 1661,
      "eck": 1662,
      "fer": 1663,
      "weiter": 1664,
      "Ġdenk": 1665,
      "hnlichkeit": 1666,
      "ĠSpeicher": 1667,
      "ĠAnweis": 1668,
      "twort": 1669,
      "Ġrichtigen": 1670,
      "ĠNeues": 1671,
      "ĠComputerprogramme": 1672,
      "ĠBilderkenn": 1673,
      "ringen": 1674,
      "ĠGruppe": 1675,
      "samkeit": 1676,
      "Ġreag": 1677,
      "ĠMachine": 1678,
      "')": 1679,
      "Hast": 1680,
      "Sh": 1681,
      "To": 1682,
      "Varianz": 1683,
      "Wann": 1684,
      "hat": 1685,
      "hal": 1686,
      "pl": 1687,
      "rin": 1688,
      "tern": 1689,
      "von": 1690,
      "zÃ¤hl": 1691,
      "Ġung": 1692,
      "Ġwahrschein": 1693,
      "eig": 1694,
      "ant": 1695,
      "Ġmisst": 1696,
      "ĠDet": 1697,
      "odierer": 1698,
      "Ġles": 1699,
      "Ġhoch": 1700,
      "Ġverwendet": 1701,
      "annten": 1702,
      "ĠGRU": 1703,
      "ĠComputerlernen": 1704,
      "ĠVide": 1705,
      "eile": 1706,
      "eilt": 1707,
      "Ġerstellen": 1708,
      "Ġgenaue": 1709,
      "ĠStart": 1710,
      "legen": 1711,
      "echnik": 1712,
      "ĠRechenz": 1713,
      "Ġwillst": 1714,
      "ariab": 1715,
      "Ġstabiler": 1716,
      "Ġvermeiden": 1717,
      "schaft": 1718,
      "merksamkeit": 1719,
      "Ġjemand": 1720,
      "Da": 1721,
      "KÃ¶n": 1722,
      "fass": 1723,
      "gine": 1724,
      "haupt": 1725,
      "punkt": 1726,
      "wahl": 1727,
      "icher": 1728,
      "Ġmusst": 1729,
      "igt": 1730,
      "ĠSor": 1731,
      "aly": 1732,
      "ĠBackpropagation": 1733,
      "ĠNutz": 1734,
      "ĠNacht": 1735,
      "ĠLernens": 1736,
      "ĠSchritte": 1737,
      "ĠLernschritte": 1738,
      "ĠFehlerwert": 1739,
      "ĠEngine": 1740,
      "Ġgesehen": 1741,
      "ĠMerkmals": 1742,
      "Ġverschiedenen": 1743,
      "Ġperfekt": 1744,
      "sÃ¤chlich": 1745,
      "ĠKannst": 1746,
      "ĠAutoencoder": 1747,
      "Ġwahrscheinlich": 1748,
      "ĠEngineering": 1749,
      "Early": 1750,
      "fft": 1751,
      "rem": 1752,
      "reg": 1753,
      "erkt": 1754,
      "Ġbringt": 1755,
      "Ġvoll": 1756,
      "ĠDabei": 1757,
      "ĠkÃ¼nst": 1758,
      "Ġfrage": 1759,
      "Ġverring": 1760,
      "ĠKreu": 1761,
      "ĠFilter": 1762,
      "Ġguter": 1763,
      "ĠZustand": 1764,
      "Ġdavon": 1765,
      "Ġvorhersa": 1766,
      "endes": 1767,
      "Ġbrauche": 1768,
      "ĠEntwick": 1769,
      "Ġmehrere": 1770,
      "Ġbestimmten": 1771,
      "Ġdarin": 1772,
      "Ġmeistens": 1773,
      "ĠÃľbungsdaten": 1774,
      "hatbot": 1775,
      "Belohn": 1776,
      "ecoder": 1777,
      "leistung": 1778,
      "che": 1779,
      "Ġsuch": 1780,
      "Ã¤ft": 1781,
      "ĠlÃ¤sst": 1782,
      "ĠPunkt": 1783,
      "ĠAdam": 1784,
      "gew": 1785,
      "Ġbearbeiten": 1786,
      "Ġanzu": 1787,
      "eilen": 1788,
      "Ġerr": 1789,
      "ĠÃ¼berhaupt": 1790,
      "Ġdeinen": 1791,
      "Ġspiel": 1792,
      "Ġrichtige": 1793,
      "igkeiten": 1794,
      "Ġabsolut": 1795,
      "ĠEinstellung": 1796,
      "ĠVorhersage": 1797,
      "Ã¶glichkeit": 1798,
      "ĠwÃ¼rdest": 1799,
      "ĠAnfÃ¤nger": 1800,
      "Ġverbessert": 1801,
      "ĠNeuronale": 1802,
      "eute": 1803,
      "ĠJe": 1804,
      "ualitÃ¤t": 1805,
      "Ġeinzeln": 1806,
      "Ġfertig": 1807,
      "Ġsorgt": 1808,
      "ĠBedeutung": 1809,
      "Ġliefert": 1810,
      "Ġunbek": 1811,
      "iskrim": 1812,
      "iskrimin": 1813,
      "Denk": 1814,
      "RNNs": 1815,
      "So": 1816,
      "Sehr": 1817,
      "air": 1818,
      "des": 1819,
      "ege": 1820,
      "gibt": 1821,
      "th": 1822,
      "unk": 1823,
      "ator": 1824,
      "ĠDes": 1825,
      "Ã¤h": 1826,
      "artw": 1827,
      "eitet": 1828,
      "ĠBoosting": 1829,
      "ĠChatbot": 1830,
      "ĠAnpassen": 1831,
      "gebaut": 1832,
      "ĠSprachverarbeitung": 1833,
      "Ġgeben": 1834,
      "ĠerklÃ¤re": 1835,
      "Diese": 1836,
      "Ġschlau": 1837,
      "ĠDiese": 1838,
      "Ġklare": 1839,
      "Ġdaran": 1840,
      "ĠÃ¤hnliche": 1841,
      "ĠbeschÃ¤ft": 1842,
      "yper": 1843,
      "Ġbleiben": 1844,
      "lock": 1845,
      "grund": 1846,
      "ipp": 1847,
      "Ġjedes": 1848,
      "Ġanzupassen": 1849,
      "RL": 1850,
      "amp": 1851,
      "cy": 1852,
      "qu": 1853,
      "Ġdarum": 1854,
      "rom": 1855,
      "Ġunterschied": 1856,
      "Ġleicht": 1857,
      "ĠFÃ¤ll": 1858,
      "Ġscha": 1859,
      "erkzeu": 1860,
      "urr": 1861,
      "ĠSpiel": 1862,
      "ĠErklÃ¤r": 1863,
      "ĠGrÃ¶": 1864,
      "Ã¶ren": 1865,
      "tragung": 1866,
      "Ġverhindern": 1867,
      "Ġverhindert": 1868,
      "Ġbleibt": 1869,
      "Ġmaschinellen": 1870,
      "Ġnehmen": 1871,
      "ĠFehlern": 1872,
      "weiterung": 1873,
      "Feature": 1874,
      "ail": 1875,
      "ef": 1876,
      "hst": 1877,
      "li": 1878,
      "ser": 1879,
      "Ġehr": 1880,
      "Ġwann": 1881,
      "Ġgehen": 1882,
      "Ġnimm": 1883,
      "ĠDa": 1884,
      "ĠSatz": 1885,
      "ĠfrÃ¼": 1886,
      "alid": 1887,
      "ĠTag": 1888,
      "Ġschreiben": 1889,
      "ĠNull": 1890,
      "ÃŁen": 1891,
      "Ġbessere": 1892,
      "stellung": 1893,
      "olle": 1894,
      "ĠBeispielen": 1895,
      "Ã¤tze": 1896,
      "Ġlieber": 1897,
      "echnung": 1898,
      "stÃ¤ndigkeit": 1899,
      "ĠVorteile": 1900,
      "Ġfalsche": 1901,
      "Beim": 1902,
      "ĠGenerativ": 1903,
      "Ġext": 1904,
      "ĠQualitÃ¤t": 1905,
      "yperparameter": 1906,
      "Ġehrlich": 1907,
      "Bo": 1908,
      "Qu": 1909,
      "gar": 1910,
      "ora": 1911,
      "ret": 1912,
      "ress": 1913,
      "sÃ¤tz": 1914,
      "volut": 1915,
      "ĠÃ¤ndert": 1916,
      "anis": 1917,
      "Ġletz": 1918,
      "ĠhÃ¤uf": 1919,
      "eiten": 1920,
      "ĠverÃ¤ndert": 1921,
      "ĠWerkzeu": 1922,
      "ĠGes": 1923,
      "Ġsogar": 1924,
      "rainieren": 1925,
      "Ġtyp": 1926,
      "ĠAnzahl": 1927,
      "Ġdeines": 1928,
      "Ġfindest": 1929,
      "Ġallgem": 1930,
      "ĠEncoder": 1931,
      "Ġentscheiden": 1932,
      "Programmen": 1933,
      "ĠZahlenreihen": 1934,
      "ĠzusammenhÃ¤ngen": 1935,
      "ĠRegel": 1936,
      "Ġschwierige": 1937,
      "Ġdieses": 1938,
      "ĠEntscheidungs": 1939,
      "Ġfeste": 1940,
      "Ġgebaut": 1941,
      "ĠTesten": 1942,
      "Ġschaue": 1943,
      "Ġbeeinflusst": 1944,
      "Token": 1945,
      "merksamkeits": 1946,
      "fassung": 1947,
      "iskriminator": 1948,
      "Bl": 1949,
      "Fehler": 1950,
      "Ha": 1951,
      "cent": 1952,
      "griff": 1953,
      "system": 1954,
      "Ġdeut": 1955,
      "ieht": 1956,
      "Ġweg": 1957,
      "ĠweiÃŁ": 1958,
      "antwort": 1959,
      "Ã¼ch": 1960,
      "ĠMÃ¶glichkeit": 1961,
      "ĠEigen": 1962,
      "scht": 1963,
      "Ġverg": 1964,
      "ĠWege": 1965,
      "aum": 1966,
      "ĠDatenmen": 1967,
      "ĠThem": 1968,
      "ehrer": 1969,
      "Ġaufgebaut": 1970,
      "Ġstatt": 1971,
      "Ġeinfachen": 1972,
      "ĠNetzes": 1973,
      "ĠerklÃ¤rt": 1974,
      "ollstÃ¤ndigkeit": 1975,
      "Ġnachdem": 1976,
      "Ġarbeite": 1977,
      "Ġbaue": 1978,
      "Ġdarauf": 1979,
      "Ã¤rkendes": 1980,
      "ĠSchwier": 1981,
      "lage": 1982,
      "ĠhÃ¶re": 1983,
      "ĠDetail": 1984,
      "ĠVideo": 1985,
      "Ġeinzelne": 1986,
      "efin": 1987,
      "Learning": 1988,
      "Wissen": 1989,
      "cem": 1990,
      "eben": 1991,
      "imal": 1992,
      "methode": 1993,
      "pro": 1994,
      "rund": 1995,
      "tro": 1996,
      "xt": 1997,
      "Ġ0": 1998,
      "Ġemp": 1999,
      "ĠUmgebung": 2000,
      "einfor": 2001,
      "ĠDeep": 2002,
      "ĠLayer": 2003,
      "ĠEben": 2004,
      "schwind": 2005,
      "ĠKl": 2006,
      "ĠFein": 2007,
      "ĠForm": 2008,
      "ilder": 2009,
      "Ġwichtigste": 2010,
      "Ġneues": 2011,
      "ĠLerndaten": 2012,
      "ĠstÃ¤nd": 2013,
      "ĠStartw": 2014,
      "ĠVergleich": 2015,
      "Ġbrauchst": 2016,
      "Ġobwohl": 2017,
      "omplex": 2018,
      "Ġanders": 2019,
      "reffen": 2020,
      "Ġgesch": 2021,
      "ĠMaschinellem": 2022,
      "Ã¤cht": 2023,
      "Gehirne": 2024,
      "idual": 2025,
      "altet": 2026,
      "barkeit": 2027,
      "ĠnÃ¤chste": 2028,
      "ĠBesondere": 2029,
      "ĠBesonders": 2030,
      "ĠGenerator": 2031,
      "ordnet": 2032,
      "ruktur": 2033,
      "Ġkenne": 2034,
      "ĠMenschen": 2035,
      "Shot": 2036,
      "Soft": 2037,
      "unkte": 2038,
      "ĠGrÃ¶ÃŁe": 2039,
      "Haha": 2040,
      "cement": 2041,
      "troll": 2042,
      "einforcement": 2043,
      "00": 2044,
      "Fi": 2045,
      "Tor": 2046,
      "Zer": 2047,
      "az": 2048,
      "fehler": 2049,
      "hol": 2050,
      "kon": 2051,
      "klein": 2052,
      "oFi": 2053,
      "weg": 2054,
      "wÃ¤hl": 2055,
      "Ġweit": 2056,
      "eld": 2057,
      "athem": 2058,
      "Ġach": 2059,
      "eher": 2060,
      "Ã¤ter": 2061,
      "Ġkein": 2062,
      "ĠMen": 2063,
      "Ġfange": 2064,
      "schn": 2065,
      "schen": 2066,
      "text": 2067,
      "ĠTrainieren": 2068,
      "Ġstell": 2069,
      "Ġersten": 2070,
      "ungsvoll": 2071,
      "ediz": 2072,
      "ĠprÃ¼f": 2073,
      "Ġspart": 2074,
      "folgen": 2075,
      "Ġmerke": 2076,
      "Ġihnen": 2077,
      "Entwick": 2078,
      "ĠGericht": 2079,
      "Ġentwickeln": 2080,
      "iebling": 2081,
      "Ġinneren": 2082,
      "ĠBilderkennung": 2083,
      "Ġreagiert": 2084,
      "ĠDescent": 2085,
      "urrent": 2086,
      "Ġnimmst": 2087,
      "ĠThema": 2088,
      "omplexitÃ¤t": 2089,
      "Softmax": 2090,
      "athemat": 2091,
      "edizin": 2092,
      "UC": 2093,
      "fehl": 2094,
      "gst": 2095,
      "ibst": 2096,
      "ses": 2097,
      "setzen": 2098,
      "wacht": 2099,
      "zis": 2100,
      "zuf": 2101,
      "ĠÃ¼": 2102,
      "steht": 2103,
      "asst": 2104,
      "uning": 2105,
      "Ġmerkt": 2106,
      "Ġbeh": 2107,
      "ated": 2108,
      "rotz": 2109,
      "ĠzurÃ¼ck": 2110,
      "ĠDiskriminator": 2111,
      "ette": 2112,
      "ĠEmbeddings": 2113,
      "ĠAm": 2114,
      "Ġverwenden": 2115,
      "ĠKomp": 2116,
      "Ġbeg": 2117,
      "ĠGed": 2118,
      "ĠGewicht": 2119,
      "ĠGradienten": 2120,
      "ĠRicht": 2121,
      "echnen": 2122,
      "Ġtreffen": 2123,
      "Ġtrotz": 2124,
      "Ġstimm": 2125,
      "samm": 2126,
      "ethoden": 2127,
      "andelt": 2128,
      "rick": 2129,
      "ĠOverfitting": 2130,
      "reibt": 2131,
      "Ġganze": 2132,
      "ĠselbststÃ¤ndig": 2133,
      "apaz": 2134,
      "ĠgrÃ¶ÃŁten": 2135,
      "Ġhinter": 2136,
      "ĠAktivierungsfunktionen": 2137,
      "zept": 2138,
      "ĠNeuronalen": 2139,
      "ĠfÃ¼hrt": 2140,
      "ĠKÃ¼nstlicher": 2141,
      "ĠgehÃ¶rt": 2142,
      "rÃ¤zis": 2143,
      "fortschritt": 2144,
      "thik": 2145,
      "Ġextrem": 2146,
      "apazitÃ¤t": 2147,
      "Keine": 2148,
      "PT": 2149,
      "Sag": 2150,
      "fe": 2151,
      "fus": 2152,
      "gel": 2153,
      "kehr": 2154,
      "me": 2155,
      "mus": 2156,
      "renz": 2157,
      "setz": 2158,
      "zess": 2159,
      "erung": 2160,
      "inus": 2161,
      "Ġsort": 2162,
      "Ġsinn": 2163,
      "Ġmensch": 2164,
      "Ġbist": 2165,
      "Ġnull": 2166,
      "ichtbar": 2167,
      "orit": 2168,
      "ĠLiebling": 2169,
      "Ġlog": 2170,
      "ĠAUC": 2171,
      "ĠBeg": 2172,
      "ĠWerten": 2173,
      "ĠFor": 2174,
      "ĠGra": 2175,
      "ĠNam": 2176,
      "ĠNerv": 2177,
      "ĠRo": 2178,
      "ĠRolle": 2179,
      "iss": 2180,
      "echanis": 2181,
      "Ġtut": 2182,
      "ungsf": 2183,
      "Ġmeinen": 2184,
      "Modells": 2185,
      "ĠspÃ¤ter": 2186,
      "Ġbesondere": 2187,
      "osinus": 2188,
      "ĠSignal": 2189,
      "ĠKÃ¼nstliche": 2190,
      "Projekt": 2191,
      "ĠwÃ¤hlen": 2192,
      "forder": 2193,
      "netzwerke": 2194,
      "Ġpositiven": 2195,
      "ensor": 2196,
      "ĠAnweisungen": 2197,
      "Ġunbekannten": 2198,
      "Ã¤higkeit": 2199,
      "alidierung": 2200,
      "Wissens": 2201,
      "Ã¤chtnis": 2202,
      "echanismus": 2203,
      "AE": 2204,
      "Kurve": 2205,
      "MSE": 2206,
      "OC": 2207,
      "be": 2208,
      "gorit": 2209,
      "lÃ¤s": 2210,
      "lgorit": 2211,
      "netze": 2212,
      "sel": 2213,
      "ult": 2214,
      "validierung": 2215,
      "ziel": 2216,
      "zvalidierung": 2217,
      "Ġeffiz": 2218,
      "Ġeher": 2219,
      "ĠnÃ¶t": 2220,
      "ĠSamp": 2221,
      "ĠMess": 2222,
      "Ġfair": 2223,
      "ierungen": 2224,
      "ĠLehrer": 2225,
      "ĠAr": 2226,
      "Ġverklein": 2227,
      "aufen": 2228,
      "Ã¼rz": 2229,
      "Ġbeib": 2230,
      "ĠGesch": 2231,
      "ĠROC": 2232,
      "gend": 2233,
      "ĠModellen": 2234,
      "ĠSchl": 2235,
      "Ġsteu": 2236,
      "exib": 2237,
      "ĠFehlerfunktion": 2238,
      "Einstellungen": 2239,
      "ĠAufmerksamkeits": 2240,
      "spiele": 2241,
      "Ġkleines": 2242,
      "Ġspr": 2243,
      "Unter": 2244,
      "oss": 2245,
      "ĠHauptgrund": 2246,
      "Manchmal": 2247,
      "Ġsolltest": 2248,
      "heiten": 2249,
      "hÃ¤nge": 2250,
      "ĠZusammenhÃ¤nge": 2251,
      "Prompt": 2252,
      "ĠGerÃ¤": 2253,
      "ederated": 2254,
      "ĠLÃ¶sung": 2255,
      "sammlung": 2256,
      "fortschritts": 2257,
      "Ġsinnvoll": 2258,
      "ĠSampling": 2259,
      "'),": 2260,
      "AG": 2261,
      "Backpropagation": 2262,
      "Ethik": 2263,
      "Falt": 2264,
      "Gut": 2265,
      "Sind": 2266,
      "Soll": 2267,
      "Zusammen": 2268,
      "cod": 2269,
      "egt": 2270,
      "gang": 2271,
      "tet": 2272,
      "Ġmeist": 2273,
      "rakt": 2274,
      "Ġget": 2275,
      "Ġgar": 2276,
      "Ġgibst": 2277,
      "ĠDenk": 2278,
      "Ã¤l": 2279,
      "oran": 2280,
      "ĠLoFi": 2281,
      "inden": 2282,
      "ĠBew": 2283,
      "ĠBesch": 2284,
      "ĠKoch": 2285,
      "Ġschritt": 2286,
      "liches": 2287,
      "deen": 2288,
      "ĠGrad": 2289,
      "ĠCNNs": 2290,
      "Ġanst": 2291,
      "ĠZum": 2292,
      "ĠVariab": 2293,
      "ĠVollstÃ¤ndigkeit": 2294,
      "Ġtiefen": 2295,
      "Ġrechnet": 2296,
      "ĠHyperparameter": 2297,
      "ĠVerb": 2298,
      "aschine": 2299,
      "Ġschlimm": 2300,
      "leicht": 2301,
      "ffer": 2302,
      "Ġnacheinander": 2303,
      "Ġnachts": 2304,
      "ErzÃ¤hl": 2305,
      "reffer": 2306,
      "Ġseiner": 2307,
      "Ġbekommen": 2308,
      "ĠwofÃ¼r": 2309,
      "ekodierer": 2310,
      "artet": 2311,
      "Ġeigene": 2312,
      "ĠNeuronen": 2313,
      "Ġkomplizierte": 2314,
      "Ġnormale": 2315,
      "ionsmatrix": 2316,
      "lauf": 2317,
      "ÃĦhnlichkeit": 2318,
      "fÃ¼hl": 2319,
      "ĠSchwank": 2320,
      "wandelt": 2321,
      "Ġtiefe": 2322,
      "CAM": 2323,
      "adrat": 2324,
      "Epoche": 2325,
      "ĠMeinung": 2326,
      "Ġalten": 2327,
      "ĠPlatz": 2328,
      "Residual": 2329,
      "ĠRechenzelle": 2330,
      "romiss": 2331,
      "antwortungsvoll": 2332,
      "Ã¼cher": 2333,
      "ĠstÃ¤ndig": 2334,
      "Ġtrotzdem": 2335,
      "fusionsmatrix": 2336,
      "Gest": 2337,
      "Pol": 2338,
      "Ste": 2339,
      "dÃ¼n": 2340,
      "hmen": 2341,
      "idee": 2342,
      "jekte": 2343,
      "lick": 2344,
      "sion": 2345,
      "ternen": 2346,
      "chen": 2347,
      "Ġdest": 2348,
      "Ġdoch": 2349,
      "einfach": 2350,
      "eigt": 2351,
      "anach": 2352,
      "Ġvora": 2353,
      "ĠSÃ¤tze": 2354,
      "ork": 2355,
      "arten": 2356,
      "Ġlangen": 2357,
      "Ġheute": 2358,
      "Ġvergleich": 2359,
      "ĠTensor": 2360,
      "Ġschaut": 2361,
      "ĠCon": 2362,
      "ĠNot": 2363,
      "Ġguten": 2364,
      "Ġinternen": 2365,
      "ĠRÃ¼ck": 2366,
      "Ġmiteinander": 2367,
      "Ġvoneinander": 2368,
      "Ġgenannt": 2369,
      "ĠLernsystem": 2370,
      "Ġverstanden": 2371,
      "Ġerf": 2372,
      "Ġjetzt": 2373,
      "verlÃ¤s": 2374,
      "rik": 2375,
      "ĠOft": 2376,
      "auptsÃ¤chlich": 2377,
      "ĠRechenleistung": 2378,
      "omat": 2379,
      "Ġeigenen": 2380,
      "ĠNeuronales": 2381,
      "Schichten": 2382,
      "ĠkÃ¶nntest": 2383,
      "Ġberechnet": 2384,
      "aket": 2385,
      "gesetzt": 2386,
      "ĠSituationen": 2387,
      "Ġflexib": 2388,
      "Ġries": 2389,
      "ĠSorge": 2390,
      "regel": 2391,
      "Ġvorhersagt": 2392,
      "ĠEntwicklung": 2393,
      "ĠFÃ¤lle": 2394,
      "Quadrat": 2395,
      "ĠhÃ¤ufig": 2396,
      "ĠEigenschaft": 2397,
      "ĠMenge": 2398,
      "ĠLieblings": 2399,
      "ĠArten": 2400,
      "ĠBewert": 2401,
      "Ġdesto": 2402,
      "Boost": 2403,
      "Cha": 2404,
      "Embeddings": 2405,
      "GBoost": 2406,
      "Loss": 2407,
      "Top": 2408,
      "XGBoost": 2409,
      "det": 2410,
      "dru": 2411,
      "fÃ¤ll": 2412,
      "ho": 2413,
      "icy": 2414,
      "neu": 2415,
      "weck": 2416,
      "chn": 2417,
      "Ġdenn": 2418,
      "unft": 2419,
      "Ġbel": 2420,
      "Ġbitte": 2421,
      "Ġaut": 2422,
      "Ġakt": 2423,
      "ĠDurch": 2424,
      "ĠDecoder": 2425,
      "ĠSinn": 2426,
      "Ġkn": 2427,
      "Ġkaum": 2428,
      "ĠMark": 2429,
      "ĠMAE": 2430,
      "ĠhÃ¤lt": 2431,
      "Ġverw": 2432,
      "ĠKop": 2433,
      "ĠTrick": 2434,
      "ĠRand": 2435,
      "Ġsofort": 2436,
      "Ġsiehst": 2437,
      "ĠComputermodell": 2438,
      "ĠLernfortschritts": 2439,
      "Ġvorstellen": 2440,
      "egrenz": 2441,
      "hre": 2442,
      "verschwind": 2443,
      "ĠDingen": 2444,
      "Ġpl": 2445,
      "Ġspeich": 2446,
      "ffline": 2447,
      "ehirnen": 2448,
      "Ġgesam": 2449,
      "Ã¼nft": 2450,
      "heor": 2451,
      "Ġbenutz": 2452,
      "eratur": 2453,
      "ĠEntscheidung": 2454,
      "aximal": 2455,
      "eistens": 2456,
      "Verzerrung": 2457,
      "Anpassung": 2458,
      "Ã¤rker": 2459,
      "Ġtechn": 2460,
      "Neuron": 2461,
      "Ã¤rkenden": 2462,
      "ĠComputernetzwerk": 2463,
      "plod": 2464,
      "Ġlesen": 2465,
      "ĠGRUs": 2466,
      "alyse": 2467,
      "ĠbeschÃ¤ftigt": 2468,
      "Ġallgemein": 2469,
      "Black": 2470,
      "ĠMÃ¶glichkeiten": 2471,
      "ĠDetails": 2472,
      "efinitiv": 2473,
      "Entwickler": 2474,
      "ĠKompromiss": 2475,
      "ĠForest": 2476,
      "Ġschrittweise": 2477,
      "Gestaltung": 2478,
      "Policy": 2479,
      "ĠConne": 2480,
      "ĠRÃ¼ckm": 2481,
      "Chain": 2482,
      "Ġautomat": 2483,
      "Fram": 2484,
      "Gerne": 2485,
      "Mechanismus": 2486,
      "bei": 2487,
      "egen": 2488,
      "kurve": 2489,
      "kÃ¼rz": 2490,
      "kÃ¼nft": 2491,
      "lern": 2492,
      "ov": 2493,
      "ote": 2494,
      "prÃ¼f": 2495,
      "rit": 2496,
      "sieht": 2497,
      "uerung": 2498,
      "wichtig": 2499,
      "wÃ¤r": 2500,
      "werte": 2501,
      "erweise": 2502,
      "strukt": 2503,
      "iebt": 2504,
      "Ġeingesetzt": 2505,
      "Ġgest": 2506,
      "Ġbehe": 2507,
      "mmy": 2508,
      "ĠzusÃ¤tz": 2509,
      "Ã¤um": 2510,
      "Ġkennt": 2511,
      "ĠMit": 2512,
      "ĠMap": 2513,
      "achen": 2514,
      "ĠBlock": 2515,
      "ĠDatensammlung": 2516,
      "gegeben": 2517,
      "Ġbearbeitet": 2518,
      "Ġvielleicht": 2519,
      "Ġerste": 2520,
      "Ġerlau": 2521,
      "ĠSpiele": 2522,
      "ĠEssen": 2523,
      "Ġrein": 2524,
      "ĠErfahr": 2525,
      "Ã¼bertragung": 2526,
      "zustellen": 2527,
      "ĠBeim": 2528,
      "ĠVerhalten": 2529,
      "Ġprakt": 2530,
      "rÃ¼n": 2531,
      "rift": 2532,
      "Ġliegen": 2533,
      "ĠSprachmodelle": 2534,
      "reativ": 2535,
      "ework": 2536,
      "Ġseinen": 2537,
      "ĠRegress": 2538,
      "erenz": 2539,
      "Ġschwierigen": 2540,
      "Ġsonst": 2541,
      "Dummy": 2542,
      "ionsfehler": 2543,
      "Ġbeschreibt": 2544,
      "Ġschlechte": 2545,
      "fÃ¼hr": 2546,
      "Ġentwickelt": 2547,
      "aktor": 2548,
      "Ġjedem": 2549,
      "ĠTeam": 2550,
      "Ġnied": 2551,
      "ĠLÃ¶sungen": 2552,
      "Ġdenkst": 2553,
      "halb": 2554,
      "ĠfrÃ¼her": 2555,
      "ĠDatenmengen": 2556,
      "wachtes": 2557,
      "ĠRichtung": 2558,
      "ĠNervenz": 2559,
      "Faltungs": 2560,
      "Zusammenfassung": 2561,
      "Steuerung": 2562,
      "ĠNotiz": 2563,
      "verlÃ¤ssig": 2564,
      "plodieren": 2565,
      "Framework": 2566,
      "struktionsfehler": 2567,
      "\",": 2568,
      "\"?[": 2569,
      "10": 2570,
      "AR": 2571,
      "FAR": 2572,
      "Gradienten": 2573,
      "IFAR": 2574,
      "Methode": 2575,
      "Rew": 2576,
      "Technik": 2577,
      "fr": 2578,
      "fik": 2579,
      "fasst": 2580,
      "kunft": 2581,
      "so": 2582,
      "ul": 2583,
      "ĠUm": 2584,
      "stes": 2585,
      "ieg": 2586,
      "ieh": 2587,
      "ernst": 2588,
      "ĠzukÃ¼nft": 2589,
      "Ġkor": 2590,
      "ĠhauptsÃ¤chlich": 2591,
      "ĠAu": 2592,
      "Ã¶hn": 2593,
      "ĠTheor": 2594,
      "ĠFar": 2595,
      "Ġbeiden": 2596,
      "ĠNach": 2597,
      "ĠRAG": 2598,
      "Ġsol": 2599,
      "Ġsowohl": 2600,
      "rainiert": 2601,
      "Ġtri": 2602,
      "Ġaussehen": 2603,
      "ĠstÃ¤rker": 2604,
      "Ġvorne": 2605,
      "ĠStÃ¼ck": 2606,
      "ĠHand": 2607,
      "Ġerkenne": 2608,
      "Ġentf": 2609,
      "ĠUnit": 2610,
      "ĠUnter": 2611,
      "Ġtrainiere": 2612,
      "Gehirns": 2613,
      "Ġhinten": 2614,
      "ĠfÃ¼hl": 2615,
      "ĠTests": 2616,
      "ĠKatze": 2617,
      "ĠKonfusionsmatrix": 2618,
      "Speicher": 2619,
      "ĠTransfer": 2620,
      "Ġmaschinelles": 2621,
      "emperatur": 2622,
      "ĠBaum": 2623,
      "ĠBeste": 2624,
      "ĠZuordn": 2625,
      "ĠZukunft": 2626,
      "Ġkomplexe": 2627,
      "Neuronal": 2628,
      "Ġalte": 2629,
      "Ġerzeugen": 2630,
      "Systeme": 2631,
      "ĠGefÃ¼hl": 2632,
      "Ġgefunden": 2633,
      "Ġunterschiedlich": 2634,
      "Box": 2635,
      "ĠSchwierigkeiten": 2636,
      "ĠprÃ¼fe": 2637,
      "ĠGrafik": 2638,
      "ĠVerbesser": 2639,
      "dÃ¼nnen": 2640,
      "ĠMarkierungen": 2641,
      "egrenzung": 2642,
      "ĠRÃ¼ckmeld": 2643,
      "ritten": 2644,
      "wÃ¤rts": 2645,
      "ĠNotizb": 2646,
      "Reward": 2647,
      "Ġtrifft": 2648,
      "'s": 2649,
      "Begrenzung": 2650,
      "CNNs": 2651,
      "Ko": 2652,
      "KomplexitÃ¤t": 2653,
      "KapazitÃ¤t": 2654,
      "Sel": 2655,
      "VM": 2656,
      "current": 2657,
      "das": 2658,
      "net": 2659,
      "nder": 2660,
      "nline": 2661,
      "tief": 2662,
      "uhe": 2663,
      "inien": 2664,
      "Ġdau": 2665,
      "Ġsichtbar": 2666,
      "Ġwandelt": 2667,
      "rap": 2668,
      "ragt": 2669,
      "utaten": 2670,
      "ĠzufÃ¤ll": 2671,
      "ĠzuverlÃ¤ssig": 2672,
      "ĠDend": 2673,
      "etrik": 2674,
      "ĠMa": 2675,
      "Ġfehler": 2676,
      "achten": 2677,
      "Ġleich": 2678,
      "Ġlernst": 2679,
      "ĠProb": 2680,
      "ĠAll": 2681,
      "eitung": 2682,
      "Ã¶scht": 2683,
      "ĠDatenreihen": 2684,
      "ĠTab": 2685,
      "ĠTechnik": 2686,
      "ĠTipp": 2687,
      "ĠFÃ¤higkeit": 2688,
      "gestellt": 2689,
      "erklein": 2690,
      "ichtigkeit": 2691,
      "ĠNormal": 2692,
      "ĠRest": 2693,
      "ĠRMSE": 2694,
      "Ġanwenden": 2695,
      "urÃ¼ck": 2696,
      "ĠIdeen": 2697,
      "ĠKIs": 2698,
      "Ġtoll": 2699,
      "ĠauswÃ¤hl": 2700,
      "Ã¼bersicht": 2701,
      "ĠStand": 2702,
      "ĠStruktur": 2703,
      "immung": 2704,
      "edaten": 2705,
      "ĠVerzerrung": 2706,
      "Ġallem": 2707,
      "rÃ¼ckt": 2708,
      "Ġsollen": 2709,
      "Ġzwar": 2710,
      "Programms": 2711,
      "Ã¼nsch": 2712,
      "Ġkomplett": 2713,
      "terschiede": 2714,
      "aping": 2715,
      "echnungen": 2716,
      "ĠHauptun": 2717,
      "ĠHauptauf": 2718,
      "ĠHauptidee": 2719,
      "auswahl": 2720,
      "ĠNeurons": 2721,
      "baum": 2722,
      "Ġnormalen": 2723,
      "Ġspeziell": 2724,
      "Datensatz": 2725,
      "Ġunterscheiden": 2726,
      "Ġsamm": 2727,
      "Ġvorherigen": 2728,
      "Regel": 2729,
      "Ġbeeindru": 2730,
      "ĠBaust": 2731,
      "AusdÃ¼nnen": 2732,
      "Ġprogrammieren": 2733,
      "Kontext": 2734,
      "ĠStapelgrÃ¶ÃŁe": 2735,
      "Ġwelches": 2736,
      "Ġbewerten": 2737,
      "ĠVerlustfunktion": 2738,
      "Ġdenke": 2739,
      "ĠNachteile": 2740,
      "Ġverringern": 2741,
      "Belohnungs": 2742,
      "Ġspielen": 2743,
      "Ġschaffen": 2744,
      "ĠGeneratives": 2745,
      "Ġletzten": 2746,
      "Ġtypisch": 2747,
      "ĠEntscheidungsbaum": 2748,
      "ĠStartwerte": 2749,
      "schnitt": 2750,
      "forderung": 2751,
      "ĠSchwankung": 2752,
      "ĠKopf": 2753,
      "ĠRandom": 2754,
      "Ġerlaubt": 2755,
      "ĠDendrogramm": 2756,
      "Boosting": 2757,
      "CNN": 2758,
      "Gehirnen": 2759,
      "LSTM": 2760,
      "Maschinell": 2761,
      "Muss": 2762,
      "PCA": 2763,
      "Reinforcement": 2764,
      "Trans": 2765,
      "Zustand": 2766,
      "]\"": 2767,
      "back": 2768,
      "bilder": 2769,
      "handen": 2770,
      "ickt": 2771,
      "kommt": 2772,
      "nten": 2773,
      "sichtig": 2774,
      "tiefes": 2775,
      "uzin": 2776,
      "uette": 2777,
      "Ġend": 2778,
      "enutz": 2779,
      "ied": 2780,
      "iehen": 2781,
      "einstellungen": 2782,
      "analyse": 2783,
      "ragen": 2784,
      "Ġbie": 2785,
      "Ġnerv": 2786,
      "ĠDad": 2787,
      "ĠSil": 2788,
      "order": 2789,
      "ierten": 2790,
      "ĠLinear": 2791,
      "Ġlassen": 2792,
      "ĠEpoch": 2793,
      "Ġauft": 2794,
      "annte": 2795,
      "ĠKov": 2796,
      "ktion": 2797,
      "Ġbeides": 2798,
      "ĠGroÃŁ": 2799,
      "ĠCl": 2800,
      "ĠRuhe": 2801,
      "Ġoffen": 2802,
      "ĠZutaten": 2803,
      "ĠVerklein": 2804,
      "Ġumzu": 2805,
      "ÃŁer": 2806,
      "Ġtat": 2807,
      "Ġauszu": 2808,
      "Ġvorkommen": 2809,
      "uchen": 2810,
      "explodieren": 2811,
      "ĠStimmt": 2812,
      "Ġdeinem": 2813,
      "Ġmeinem": 2814,
      "Ġspann": 2815,
      "ollinear": 2816,
      "ĠErgebnissen": 2817,
      "ĠRekon": 2818,
      "ĠDieser": 2819,
      "ĠgelÃ¶scht": 2820,
      "ikollinear": 2821,
      "Ġwenige": 2822,
      "ĠLernprogrammen": 2823,
      "Ġbekannt": 2824,
      "wendiglernen": 2825,
      "ezieh": 2826,
      "ĠgrÃ¶ÃŁer": 2827,
      "Ġihren": 2828,
      "Lernschritte": 2829,
      "ĠFaltungsnetze": 2830,
      "reuung": 2831,
      "Ġreden": 2832,
      "ĠwÃ¤hlt": 2833,
      "Ġkonzentriert": 2834,
      "ĠBestÃ¤rkendes": 2835,
      "ĠGANs": 2836,
      "arianzmatrix": 2837,
      "alluzin": 2838,
      "ctions": 2839,
      "ctif": 2840,
      "Ġhohe": 2841,
      "ĠÃĦnder": 2842,
      "ĠPlan": 2843,
      "Welches": 2844,
      "Ġriesig": 2845,
      "Ġjemandem": 2846,
      "Ġerreichen": 2847,
      "ĠWerkzeug": 2848,
      "ĠKlass": 2849,
      "rÃ¤zision": 2850,
      "ĠBegriff": 2851,
      "ultikollinear": 2852,
      "ĠnÃ¶tig": 2853,
      "ĠBeschrift": 2854,
      "Ġanstatt": 2855,
      "antwortungsvolle": 2856,
      "houette": 2857,
      "Ġbeliebt": 2858,
      "Ġbenutzen": 2859,
      "ĠConnections": 2860,
      "Ġniedrig": 2861,
      "Ġkorrig": 2862,
      "Koeffiz": 2863,
      "Selbst": 2864,
      "Ġleichter": 2865,
      "ĠHauptaufgabe": 2866,
      "Maschinelles": 2867,
      "ĠDadurch": 2868,
      "ĠSilhouette": 2869,
      "ĠEpoche": 2870,
      "ĠKovarianzmatrix": 2871,
      "ĠRekonstruktionsfehler": 2872,
      "ctified": 2873,
      "ultikollinearitÃ¤t": 2874,
      "Dein": 2875,
      "Layer": 2876,
      "Methoden": 2877,
      "Na": 2878,
      "No": 2879,
      "Temperatur": 2880,
      "Wir": 2881,
      "agramm": 2882,
      "hÃ¤lt": 2883,
      "hÃ¶ren": 2884,
      "iagramm": 2885,
      "korder": 2886,
      "mÃ¶g": 2887,
      "pret": 2888,
      "rie": 2889,
      "sst": 2890,
      "sungsf": 2891,
      "uelle": 2892,
      "vis": 2893,
      "zusa": 2894,
      "zip": 2895,
      "Ġ3": 2896,
      "Ġra": 2897,
      "erein": 2898,
      "erweiterung": 2899,
      "unch": 2900,
      "Ġsag": 2901,
      "Ġsehe": 2902,
      "Ġbringen": 2903,
      "ateg": 2904,
      "ĠDein": 2905,
      "ĠSVM": 2906,
      "Ġunwichtig": 2907,
      "ĠMal": 2908,
      "ĠLunch": 2909,
      "ĠAver": 2910,
      "Ġderen": 2911,
      "ĠBenutz": 2912,
      "ĠWelche": 2913,
      "ĠTrap": 2914,
      "ĠGNN": 2915,
      "ĠGewichte": 2916,
      "terpret": 2917,
      "Ġausprobieren": 2918,
      "Ġsteigt": 2919,
      "Ġeinfaches": 2920,
      "Ġerstellt": 2921,
      "Ġvorhanden": 2922,
      "ĠHund": 2923,
      "ittel": 2924,
      "aging": 2925,
      "Dieses": 2926,
      "ĠOnline": 2927,
      "angs": 2928,
      "Erweiterung": 2929,
      "Ġklares": 2930,
      "rekorder": 2931,
      "ĠZahlenli": 2932,
      "Ġgesamm": 2933,
      "Ġselten": 2934,
      "upervis": 2935,
      "Ġstarke": 2936,
      "Ġunsicher": 2937,
      "Ġwiederhol": 2938,
      "Ġhinzu": 2939,
      "ĠAbl": 2940,
      "ĠNetzwerke": 2941,
      "hÃ¤ng": 2942,
      "ĠFree": 2943,
      "Rectified": 2944,
      "ordnen": 2945,
      "Ġechte": 2946,
      "wandeln": 2947,
      "aktion": 2948,
      "ĠgewÃ¼nsch": 2949,
      "Ġnehme": 2950,
      "ĠEingabedaten": 2951,
      "lagen": 2952,
      "amma": 2953,
      "aufgaben": 2954,
      "zinsungsf": 2955,
      "rinzip": 2956,
      "gewicht": 2957,
      "Ġerreicht": 2958,
      "Ġspielt": 2959,
      "Denkn": 2960,
      "ĠEbene": 2961,
      "Zero": 2962,
      "ĠÃ¼b": 2963,
      "ĠGerÃ¤ten": 2964,
      "Gute": 2965,
      "Sollte": 2966,
      "ĠVariable": 2967,
      "Ġriesigen": 2968,
      "ĠBewertungs": 2969,
      "ĠhÃ¤ltst": 2970,
      "Ġverwir": 2971,
      "ĠNervenzellen": 2972,
      "ĠTheorem": 2973,
      "Ġdauert": 2974,
      "ĠTabelle": 2975,
      "ĠHauptunterschied": 2976,
      "ĠBeschriftungen": 2977,
      "zusagen": 2978,
      "ereingabe": 2979,
      "ategor": 2980,
      "ĠAveraging": 2981,
      "ĠBenutzereingabe": 2982,
      "upervised": 2983,
      "zinsungsfaktor": 2984,
      "AP": 2985,
      "Arbeit": 2986,
      "HAP": 2987,
      "Mir": 2988,
      "Meistens": 2989,
      "Netz": 2990,
      "Ok": 2991,
      "Paket": 2992,
      "Rechnung": 2993,
      "Tiefes": 2994,
      "Wichtigkeit": 2995,
      "ZurÃ¼ck": 2996,
      "leg": 2997,
      "ok": 2998,
      "ren": 2999,
      "uz": 3000,
      "xis": 3001,
      "ers": 3002,
      "stabil": 3003,
      "eider": 3004,
      "eigung": 3005,
      "Ġisst": 3006,
      "Ġmessen": 3007,
      "raxis": 3008,
      "Ġneg": 3009,
      "ĠDanach": 3010,
      "ĠSh": 3011,
      "ĠSicher": 3012,
      "ĠSHAP": 3013,
      "Ġkreativ": 3014,
      "ĠMetrik": 3015,
      "Ġfehl": 3016,
      "Ġlegt": 3017,
      "ĠhÃ¶": 3018,
      "indest": 3019,
      "ĠPraxis": 3020,
      "ĠAlgorit": 3021,
      "schl": 3022,
      "ĠBezieh": 3023,
      "ĠWo": 3024,
      "auber": 3025,
      "ĠDatenp": 3026,
      "ĠDatenerweiterung": 3027,
      "ĠKern": 3028,
      "ĠKind": 3029,
      "ĠTur": 3030,
      "ĠFrei": 3031,
      "Ġbeide": 3032,
      "gest": 3033,
      "deck": 3034,
      "genie": 3035,
      "eilung": 3036,
      "ĠSchrÃ¶dinger": 3037,
      "Ġstopp": 3038,
      "Ġerkannt": 3039,
      "Ã¤ng": 3040,
      "Ġgenauen": 3041,
      "Ġvorber": 3042,
      "ĠStuf": 3043,
      "ĠSteig": 3044,
      "racht": 3045,
      "ĠHil": 3046,
      "Ġhilfr": 3047,
      "verbindungen": 3048,
      "ĠgroÃŁer": 3049,
      "Ġschnelle": 3050,
      "ĠerklÃ¤rst": 3051,
      "Ġallen": 3052,
      "Ġkleinste": 3053,
      "ĠProblemen": 3054,
      "Ġentsteht": 3055,
      "ĠRecurrent": 3056,
      "ĠReaktion": 3057,
      "reib": 3058,
      "ĠUnterschiede": 3059,
      "ĠComputerprogrammen": 3060,
      "ĠÃľben": 3061,
      "ropie": 3062,
      "Ġzusammenarbeiten": 3063,
      "Ġverschieben": 3064,
      "Ġwaren": 3065,
      "Ġgemein": 3066,
      "ĠAbzinsungsfaktor": 3067,
      "zentropie": 3068,
      "geschaltet": 3069,
      "Ġspeziellen": 3070,
      "Angriff": 3071,
      "Inf": 3072,
      "Stimmt": 3073,
      "Ġgehst": 3074,
      "Ġfertige": 3075,
      "signal": 3076,
      "Ġprogrammierst": 3077,
      "Lernprogramme": 3078,
      "sichtlich": 3079,
      "ĠÃĦhnlichkeit": 3080,
      "Welchen": 3081,
      "KÃ¶nnen": 3082,
      "ĠNutzen": 3083,
      "Ġverringert": 3084,
      "ĠKreuzentropie": 3085,
      "ipping": 3086,
      "volution": 3087,
      "volutions": 3088,
      "Ġsortiert": 3089,
      "aximalwert": 3090,
      "Ġpraktisch": 3091,
      "ĠRegression": 3092,
      "ĠzukÃ¼nftige": 3093,
      "ĠVerbesserung": 3094,
      "ĠRÃ¼ckmeldung": 3095,
      "ĠzufÃ¤llig": 3096,
      "ĠProbedaten": 3097,
      "ĠClipping": 3098,
      "Ġspannend": 3099,
      "ĠÃĦnderungen": 3100,
      "ĠBewertungsfunktion": 3101,
      "Okay": 3102,
      "Ġnegativ": 3103,
      "ĠhÃ¶her": 3104,
      "ĠSteigungen": 3105,
      "Ġhilfreich": 3106,
      "Angriffs": 3107,
      "Eing": 3108,
      "Flo": 3109,
      "Federated": 3110,
      "Findest": 3111,
      "Generat": 3112,
      "Grund": 3113,
      "Katz": 3114,
      "Wahrscheinlichkeit": 3115,
      "Zu": 3116,
      "ce": 3117,
      "du": 3118,
      "geht": 3119,
      "lit": 3120,
      "led": 3121,
      "mÃ¤": 3122,
      "ob": 3123,
      "tuning": 3124,
      "weder": 3125,
      "yter": 3126,
      "Ġen": 3127,
      "enigen": 3128,
      "erungs": 3129,
      "asse": 3130,
      "Ġwenigen": 3131,
      "eise": 3132,
      "esen": 3133,
      "Ġmathemat": 3134,
      "Ġmedizin": 3135,
      "rau": 3136,
      "Ġgerne": 3137,
      "Ġgrund": 3138,
      "ĠDar": 3139,
      "ĠSind": 3140,
      "etten": 3141,
      "arit": 3142,
      "ĠLe": 3143,
      "emerk": 3144,
      "ĠPrinzip": 3145,
      "ĠBuch": 3146,
      "ĠWir": 3147,
      "ĠWelt": 3148,
      "ĠKodierer": 3149,
      "ĠFeature": 3150,
      "Ġbegr": 3151,
      "ĠGeht": 3152,
      "ĠCIFAR": 3153,
      "genommen": 3154,
      "ĠZuf": 3155,
      "teress": 3156,
      "Ġklingt": 3157,
      "ĠLernmethode": 3158,
      "entwick": 3159,
      "Ġaussieht": 3160,
      "ĠverstÃ¤nd": 3161,
      "ĠFehlerÃ¼bersicht": 3162,
      "ations": 3163,
      "ĠAngriff": 3164,
      "ĠÃ¼bertra": 3165,
      "upyter": 3166,
      "edes": 3167,
      "ĠGrÃ¼n": 3168,
      "Ġalleine": 3169,
      "Ġprob": 3170,
      "Ġkleineren": 3171,
      "Ġspar": 3172,
      "leichgewicht": 3173,
      "Ġentstehen": 3174,
      "ĠComputerprogramms": 3175,
      "ektiv": 3176,
      "Ġarbeitest": 3177,
      "Ġabw": 3178,
      "ĠBelohnungs": 3179,
      "Ġganzen": 3180,
      "ĠÃľbersetz": 3181,
      "ĠWÃ¶rtern": 3182,
      "Ġpassieren": 3183,
      "ĠAktivierungsrekorder": 3184,
      "ĠBerechnungen": 3185,
      "Ġfester": 3186,
      "ntest": 3187,
      "ĠFaltungen": 3188,
      "ĠArbeits": 3189,
      "ĠGrundlagen": 3190,
      "enzen": 3191,
      "Ġuntersuch": 3192,
      "Ġunterscheidet": 3193,
      "ĠJupyter": 3194,
      "Ġverloren": 3195,
      "Merkmals": 3196,
      "Ġtest": 3197,
      "ĠprÃ¼ft": 3198,
      "Ġprogrammiere": 3199,
      "Netzwerke": 3200,
      "ĠPrÃ¼fdaten": 3201,
      "ĠanfÃ¤ngt": 3202,
      "Ġhohen": 3203,
      "Ġerzeugt": 3204,
      "ĠVerlustwert": 3205,
      "eignet": 3206,
      "Ġlese": 3207,
      "ĠRechenzellen": 3208,
      "alys": 3209,
      "ĠvollstÃ¤ndig": 3210,
      "ĠKreuzvalidierung": 3211,
      "ĠErklÃ¤rung": 3212,
      "Ġvergessen": 3213,
      "ĠFeineinstellungen": 3214,
      "001": 3215,
      "Ġstimme": 3216,
      "Ġsteuern": 3217,
      "ĠZuordnungs": 3218,
      "ĠStandard": 3219,
      "LSTMs": 3220,
      "ĠVerkleinerungs": 3221,
      "alluzination": 3222,
      "ĠTuring": 3223,
      "genieur": 3224,
      "Ġstoppen": 3225,
      "Flow": 3226,
      "mÃ¤ÃŁ": 3227,
      "Ġgrundlegen": 3228,
      "arithm": 3229,
      "ĠAngriffe": 3230,
      "ĠGrÃ¼nde": 3231,
      "').": 3232,
      "Am": 3233,
      "Ach": 3234,
      "Be": 3235,
      "Cosinus": 3236,
      "Decoder": 3237,
      "Dekodierer": 3238,
      "Fein": 3239,
      "Ged": 3240,
      "Gewicht": 3241,
      "Halluzination": 3242,
      "IM": 3243,
      "Netze": 3244,
      "durch": 3245,
      "esten": 3246,
      "eckt": 3247,
      "gab": 3248,
      "glichen": 3249,
      "kel": 3250,
      "lungen": 3251,
      "seit": 3252,
      "trainiert": 3253,
      "wischen": 3254,
      "Ġc": 3255,
      "ĠJa": 3256,
      "Ġqu": 3257,
      "inkel": 3258,
      "Ġdort": 3259,
      "Ġwoll": 3260,
      "raft": 3261,
      "Ġgl": 3262,
      "Ġger": 3263,
      "Ġglau": 3264,
      "Ġkom": 3265,
      "ĠMathemat": 3266,
      "ĠMedizin": 3267,
      "ĠMittel": 3268,
      "Ġessen": 3269,
      "ache": 3270,
      "achte": 3271,
      "ierbarkeit": 3272,
      "ĠLIM": 3273,
      "Ġlaufen": 3274,
      "ald": 3275,
      "ĠhÃ¤t": 3276,
      "ĠEarly": 3277,
      "ĠPCA": 3278,
      "ĠPunkte": 3279,
      "ĠBemerk": 3280,
      "ĠverÃ¤ndern": 3281,
      "ĠWeise": 3282,
      "ĠKlein": 3283,
      "ĠKategor": 3284,
      "ĠTreffer": 3285,
      "abst": 3286,
      "ĠFort": 3287,
      "derfitting": 3288,
      "fteilung": 3289,
      "Ġbeachten": 3290,
      "ĠGPT": 3291,
      "ĠNÃ¤ch": 3292,
      "Ġinstabil": 3293,
      "genz": 3294,
      "ĠModellkarte": 3295,
      "ĠViele": 3296,
      "Ġumwandelt": 3297,
      "tere": 3298,
      "ĠLernsignal": 3299,
      "ierend": 3300,
      "ĠStÃ¤rken": 3301,
      "ĠAnwend": 3302,
      "ĠEinsatz": 3303,
      "vergenz": 3304,
      "ĠVerst": 3305,
      "Ġgeeignet": 3306,
      "ustern": 3307,
      "Ãľbungs": 3308,
      "Ġschwan": 3309,
      "Ġverbring": 3310,
      "Ġtrainierst": 3311,
      "amt": 3312,
      "iefe": 3313,
      "illation": 3314,
      "Ġwiederkehr": 3315,
      "ĠÃľberwachtes": 3316,
      "ĠGruppengrÃ¶ÃŁe": 3317,
      "ĠAbkÃ¼rz": 3318,
      "ĠReihe": 3319,
      "Ġweitergegeben": 3320,
      "Ġmerkst": 3321,
      "Ã¤llt": 3322,
      "ĠArbeiten": 3323,
      "ĠGrundlage": 3324,
      "Beispiel": 3325,
      "ĠWissens": 3326,
      "Ġvorherges": 3327,
      "fÃ¼gt": 3328,
      "Projekte": 3329,
      "Stapel": 3330,
      "Streuung": 3331,
      "Merkmale": 3332,
      "Ġtesten": 3333,
      "aky": 3334,
      "ration": 3335,
      "ĠAnweisung": 3336,
      "rink": 3337,
      "ariablen": 3338,
      "ĠMerkmalsauswahl": 3339,
      "Ġvorhersagen": 3340,
      "Belohnung": 3341,
      "Ġsucht": 3342,
      "quote": 3343,
      "ĠEncoders": 3344,
      "prozess": 3345,
      "ĠFeintuning": 3346,
      "ĠName": 3347,
      "Ġeffizien": 3348,
      "Unterforderung": 3349,
      "Ġvergleichen": 3350,
      "Ġflexibler": 3351,
      "ĠEigenschaften": 3352,
      "ĠLernfortschrittskurve": 3353,
      "Ã¤ume": 3354,
      "ĠErfahrungen": 3355,
      "Ġsolche": 3356,
      "ĠNotizbÃ¼cher": 3357,
      "Ġfehlerha": 3358,
      "Belohnungsanpassung": 3359,
      "Ġ32": 3360,
      "terpretierbarkeit": 3361,
      "Ġvorhandenen": 3362,
      "ĠLeaky": 3363,
      "ĠÃ¼bertragen": 3364,
      "ĠMathematik": 3365,
      "ĠLIME": 3366,
      "ĠBemerkungen": 3367,
      "ĠTrefferquote": 3368,
      "':": 3369,
      "Dest": 3370,
      "Definitiv": 3371,
      "Eben": 3372,
      "Few": 3373,
      "He": 3374,
      "Maschine": 3375,
      "Offline": 3376,
      "QN": 3377,
      "Stra": 3378,
      "Train": 3379,
      "bkarte": 3380,
      "bett": 3381,
      "fte": 3382,
      "lernt": 3383,
      "man": 3384,
      "oten": 3385,
      "pon": 3386,
      "renn": 3387,
      "tiefen": 3388,
      "uh": 3389,
      "zus": 3390,
      "zeichen": 3391,
      "Ġur": 3392,
      "ieÃŁen": 3393,
      "Ġwert": 3394,
      "anten": 3395,
      "Ġmischen": 3396,
      "rauf": 3397,
      "Ġaktiv": 3398,
      "ĠDQN": 3399,
      "odel": 3400,
      "iges": 3401,
      "ĠSicht": 3402,
      "ichten": 3403,
      "ĠMultikollinearitÃ¤t": 3404,
      "ĠMaximalwert": 3405,
      "ĠMustern": 3406,
      "ĠLeute": 3407,
      "Ġleitet": 3408,
      "ĠPrÃ¤zision": 3409,
      "ĠAktion": 3410,
      "ĠBlick": 3411,
      "Ġvereinfach": 3412,
      "ĠverrÃ¼ckt": 3413,
      "ĠWann": 3414,
      "test": 3415,
      "Ã¶tz": 3416,
      "gefÃ¼gt": 3417,
      "denken": 3418,
      "ĠNur": 3419,
      "Ġins": 3420,
      "ĠRNN": 3421,
      "Ġanalys": 3422,
      "isiert": 3423,
      "isierungs": 3424,
      "ĠZiele": 3425,
      "ĠZweck": 3426,
      "Ġdaher": 3427,
      "echs": 3428,
      "ĠaufhÃ¶ren": 3429,
      "Ġteilt": 3430,
      "ĠSchach": 3431,
      "ĠSchritten": 3432,
      "ĠLernprozess": 3433,
      "Ġausgeschaltet": 3434,
      "Ġerled": 3435,
      "Ġgenauso": 3436,
      "Einheit": 3437,
      "ĠSprachprogramm": 3438,
      "sprÃ¼n": 3439,
      "ĠkÃ¶nnten": 3440,
      "verparameter": 3441,
      "ĠVerÃ¤nder": 3442,
      "ĠVersehen": 3443,
      "ĠVersion": 3444,
      "aschinen": 3445,
      "Ġaller": 3446,
      "ĠOb": 3447,
      "Ġentweder": 3448,
      "ĠSprachmodells": 3449,
      "Ġverbinden": 3450,
      "weisen": 3451,
      "ieflage": 3452,
      "Ġgleichen": 3453,
      "Ġbestimmen": 3454,
      "Ġdiesem": 3455,
      "bauen": 3456,
      "Ġnormalerweise": 3457,
      "Ġfalschen": 3458,
      "ĠKonvolutions": 3459,
      "Ġbeschreiben": 3460,
      "Sprach": 3461,
      "Split": 3462,
      "Ãľbertragung": 3463,
      "Encoder": 3464,
      "Ġversuche": 3465,
      "Ġgebracht": 3466,
      "Ġsorgen": 3467,
      "Ġextra": 3468,
      "Kontroll": 3469,
      "Konvergenz": 3470,
      "ĠPrÃ¼fung": 3471,
      "Ġ100": 3472,
      "Ã¤ufe": 3473,
      "Ġanfangen": 3474,
      "ifiz": 3475,
      "KÃ¶nntest": 3476,
      "Ġsuchst": 3477,
      "Ġentscheidend": 3478,
      "Ġempfehl": 3479,
      "ĠEbenen": 3480,
      "Ġachten": 3481,
      "ĠGedÃ¤chtnis": 3482,
      "Ġstimmen": 3483,
      "ĠNamen": 3484,
      "ĠRoh": 3485,
      "Ġverkleinern": 3486,
      "Ġverkleinert": 3487,
      "Ġsprechen": 3488,
      "ĠTensorFlow": 3489,
      "verschwindenden": 3490,
      "ĠplÃ¶tz": 3491,
      "Ġgesamte": 3492,
      "Ġtechnisch": 3493,
      "Ġautomatisch": 3494,
      "Ġbeheben": 3495,
      "ĠfrÃ¼here": 3496,
      "Faltungsnetzwerke": 3497,
      "ĠFarbkarte": 3498,
      "Ġbeeindruck": 3499,
      "ĠBaustein": 3500,
      "ĠtatsÃ¤chlich": 3501,
      "rieben": 3502,
      "ĠFreizeit": 3503,
      "Inferenz": 3504,
      "ĠNÃ¤chstes": 3505,
      "Destillation": 3506,
      "ĠursprÃ¼n": 3507,
      "verparameterisierung": 3508,
      "ĠplÃ¶tzlich": 3509,
      "Au": 3510,
      "Log": 3511,
      "Mal": 3512,
      "Nerv": 3513,
      "Ohne": 3514,
      "Zahl": 3515,
      "Zellen": 3516,
      "bient": 3517,
      "dit": 3518,
      "has": 3519,
      "hing": 3520,
      "ikt": 3521,
      "ma": 3522,
      "ool": 3523,
      "prÃ¤": 3524,
      "riv": 3525,
      "rennt": 3526,
      "supervised": 3527,
      "teil": 3528,
      "xp": 3529,
      "zwei": 3530,
      "asi": 3531,
      "Ġsin": 3532,
      "Ġsod": 3533,
      "Ġeinzel": 3534,
      "Ġeinsetzen": 3535,
      "ral": 3536,
      "Ġbas": 3537,
      "ernte": 3538,
      "ĠSeiten": 3539,
      "ichtet": 3540,
      "ets": 3541,
      "etter": 3542,
      "ĠMaschinen": 3543,
      "Ġfesten": 3544,
      "ĠlÃ¤ng": 3545,
      "ale": 3546,
      "alter": 3547,
      "Ġhalten": 3548,
      "ĠWoran": 3549,
      "ĠWinkel": 3550,
      "ted": 3551,
      "ĠDatensatz": 3552,
      "ĠFragen": 3553,
      "bereitung": 3554,
      "ĠCNN": 3555,
      "ĠNet": 3556,
      "ĠRis": 3557,
      "ĠReinforcement": 3558,
      "genau": 3559,
      "genten": 3560,
      "ild": 3561,
      "Ġdenkt": 3562,
      "ussen": 3563,
      "ĠIhre": 3564,
      "ĠComputerg": 3565,
      "ĠComputerlern": 3566,
      "ĠVS": 3567,
      "sent": 3568,
      "Ġsteht": 3569,
      "ĠverstÃ¤rkenden": 3570,
      "Ġerfol": 3571,
      "ĠermÃ¶g": 3572,
      "ĠErkenn": 3573,
      "ĠFehlerrÃ¼ck": 3574,
      "ĠSteigung": 3575,
      "Einfach": 3576,
      "ĠÃ¼berprÃ¼f": 3577,
      "ĠHast": 3578,
      "ĠHaus": 3579,
      "ĠHunde": 3580,
      "Ġmeines": 3581,
      "verstehen": 3582,
      "bende": 3583,
      "Ġpers": 3584,
      "Ġkleinere": 3585,
      "Underfitting": 3586,
      "omme": 3587,
      "ohnt": 3588,
      "Ġmehreren": 3589,
      "ĠRezept": 3590,
      "Ġnachvoll": 3591,
      "Ergebnis": 3592,
      "lever": 3593,
      "ĠEinstellen": 3594,
      "wertet": 3595,
      "ĠAuswahl": 3596,
      "ĠAbfolgen": 3597,
      "ĠNetzwerken": 3598,
      "innern": 3599,
      "probiert": 3600,
      "ĠKonfl": 3601,
      "bindung": 3602,
      "fluss": 3603,
      "Ġtrainiertes": 3604,
      "Sprung": 3605,
      "ĠJedes": 3606,
      "Ã¼ssel": 3607,
      "ĠKÃ¼nstlichen": 3608,
      "Ġbereit": 3609,
      "Ġverlassen": 3610,
      "Ġkomplexen": 3611,
      "ĠGehirne": 3612,
      "allback": 3613,
      "Ġverbundene": 3614,
      "ĠProjekten": 3615,
      "Ã¤tzen": 3616,
      "Ġwelcher": 3617,
      "ĠFunktionen": 3618,
      "Ġbeeinflussen": 3619,
      "fahren": 3620,
      "ialisierung": 3621,
      "ĠAusgabewert": 3622,
      "finden": 3623,
      "ĠflieÃŁen": 3624,
      "ĠBilderkennungs": 3625,
      "Ġreagieren": 3626,
      "Ġungleich": 3627,
      "antisierungs": 3628,
      "ĠStartpunkt": 3629,
      "ĠSorgen": 3630,
      "ĠVorhersageprogramm": 3631,
      "Ġunterschiedliche": 3632,
      "Ġschafft": 3633,
      "Zerleg": 3634,
      "Ġkeinen": 3635,
      "Ġbehalten": 3636,
      "ĠAmbient": 3637,
      "Ġbegeist": 3638,
      "Ġmenschliche": 3639,
      "Ġlogarithm": 3640,
      "Ġeffizient": 3641,
      "Ġbeibringt": 3642,
      "ĠGeschwindigkeit": 3643,
      "ĠSchlÃ¼ssel": 3644,
      "Ã¤lsch": 3645,
      "Ġvorab": 3646,
      "Ġvoraus": 3647,
      "Ġerfunden": 3648,
      "neuronal": 3649,
      "Ġspeichern": 3650,
      "fÃ¼hrung": 3651,
      "Ġentfernt": 3652,
      "SelbststÃ¤ndig": 3653,
      "Ġraus": 3654,
      "Ġsagst": 3655,
      "Ġunwichtige": 3656,
      "Denknetz": 3657,
      "ĠAlgorithmen": 3658,
      "ĠBeziehungen": 3659,
      "ĠWofÃ¼r": 3660,
      "gestaltung": 3661,
      "Eingabe": 3662,
      "Grundwert": 3663,
      "ĠDarstellung": 3664,
      "ĠverstÃ¤ndlich": 3665,
      "GedÃ¤chtnis": 3666,
      "Ġclever": 3667,
      "Ġquasi": 3668,
      "Ġwollen": 3669,
      "Ġglaube": 3670,
      "ĠLernsignale": 3671,
      "Ebenen": 3672,
      "Hey": 3673,
      "Ġempfehlen": 3674,
      "ditor": 3675,
      "prÃ¤sent": 3676,
      "Ġsodass": 3677,
      "Ġeinzelnen": 3678,
      "ĠRisik": 3679,
      "ĠpersÃ¶n": 3680,
      "Ġnachvollz": 3681,
      "ĠKonflikt": 3682,
      "Ġlogarithmische": 3683,
      "'!": 3684,
      "'[": 3685,
      "Ac": 3686,
      "Bitte": 3687,
      "Bilder": 3688,
      "Filter": 3689,
      "GPT": 3690,
      "Hot": 3691,
      "Kenn": 3692,
      "Kreu": 3693,
      "Lab": 3694,
      "NE": 3695,
      "Nets": 3696,
      "Overparameterisierung": 3697,
      "Ster": 3698,
      "SNE": 3699,
      "Tuning": 3700,
      "Treffer": 3701,
      "Voll": 3702,
      "Woran": 3703,
      "ah": 3704,
      "bin": 3705,
      "blich": 3706,
      "bringen": 3707,
      "cu": 3708,
      "code": 3709,
      "fri": 3710,
      "gie": 3711,
      "hin": 3712,
      "ic": 3713,
      "methoden": 3714,
      "nÃ¶t": 3715,
      "otw": 3716,
      "pte": 3717,
      "problem": 3718,
      "sÃ¼ber": 3719,
      "teile": 3720,
      "Ġungen": 3721,
      "erhalb": 3722,
      "ster": 3723,
      "asis": 3724,
      "Ġwahr": 3725,
      "Ġide": 3726,
      "Ġeins": 3727,
      "racy": 3728,
      "Ġbeu": 3729,
      "Ġnam": 3730,
      "ĠDekodierer": 3731,
      "Ã¼ge": 3732,
      "ĠunnÃ¶t": 3733,
      "ichte": 3734,
      "Ġkomp": 3735,
      "orden": 3736,
      "ĠMisch": 3737,
      "ĠMuss": 3738,
      "ĠLeben": 3739,
      "Ġhier": 3740,
      "Ġhand": 3741,
      "ingen": 3742,
      "ĠAuch": 3743,
      "ĠAbst": 3744,
      "schalten": 3745,
      "ĠBÃ¤ume": 3746,
      "ĠBasis": 3747,
      "ĠWar": 3748,
      "aust": 3749,
      "Ã¶ll": 3750,
      "ĠKuchen": 3751,
      "ĠTiefes": 3752,
      "abhÃ¤ng": 3753,
      "ĠFam": 3754,
      "ĠFederated": 3755,
      "derkehr": 3756,
      "ĠProgrammier": 3757,
      "ĠGibt": 3758,
      "ĠGleichgewicht": 3759,
      "ĠCosinus": 3760,
      "Ġinteress": 3761,
      "ilie": 3762,
      "isieren": 3763,
      "ĠImmer": 3764,
      "Ġoptim": 3765,
      "ĠZell": 3766,
      "ĠViel": 3767,
      "Ġneuer": 3768,
      "Ġklug": 3769,
      "Ġklingen": 3770,
      "Ġtrink": 3771,
      "ĠLernÃ¼bertragung": 3772,
      "Ġauseinander": 3773,
      "Ġausgibt": 3774,
      "Ġstop": 3775,
      "Ġstelle": 3776,
      "Ġstarte": 3777,
      "Ġerw": 3778,
      "Ġerstell": 3779,
      "Ġergeben": 3780,
      "samen": 3781,
      "ĠErzeu": 3782,
      "Ġlernendes": 3783,
      "ĠAufwand": 3784,
      "endet": 3785,
      "fenster": 3786,
      "zug": 3787,
      "ĠVersuch": 3788,
      "Ġgeordnet": 3789,
      "raucht": 3790,
      "rÃ¼h": 3791,
      "Ġdurchschnitt": 3792,
      "ĠOr": 3793,
      "ĠRek": 3794,
      "ĠUngew": 3795,
      "Ġbesonderen": 3796,
      "Ġbesonderes": 3797,
      "Ġbedeuten": 3798,
      "ektor": 3799,
      "Ġklarer": 3800,
      "ĠTextes": 3801,
      "app": 3802,
      "ĠRechenein": 3803,
      "ĠVorhersagem": 3804,
      "ĠgleichmÃ¤ÃŁ": 3805,
      "auswendig": 3806,
      "stÃ¤ndnis": 3807,
      "ĠwÃ¼rden": 3808,
      "ĠSysteme": 3809,
      "Ġhinweg": 3810,
      "Abdeck": 3811,
      "Ġbaust": 3812,
      "ĠwÃ¤ren": 3813,
      "ĠWichtiges": 3814,
      "ĠverhÃ¤lt": 3815,
      "hmus": 3816,
      "Verlust": 3817,
      "Ġkurze": 3818,
      "ĠFaltungsnetzwerke": 3819,
      "Ġvorherzusagen": 3820,
      "Encod": 3821,
      "greich": 3822,
      "Ġfertigen": 3823,
      "ĠBauweise": 3824,
      "ĠBestÃ¤rkenden": 3825,
      "Ausgabe": 3826,
      "aktoren": 3827,
      "Ġpositive": 3828,
      "Lernprogrammen": 3829,
      "anke": 3830,
      "ĠPrÃ¼fer": 3831,
      "Ġperfekte": 3832,
      "ible": 3833,
      "Ġliefern": 3834,
      "Ġwelchen": 3835,
      "Ġinnerhalb": 3836,
      "ĠkÃ¼nstlich": 3837,
      "ĠkÃ¼nstliche": 3838,
      "ĠkÃ¼nstlichen": 3839,
      "ĠJede": 3840,
      "ĠChatbots": 3841,
      "Ġschlauer": 3842,
      "ĠFÃ¤llen": 3843,
      "ĠfrÃ¼h": 3844,
      "ĠTagsÃ¼ber": 3845,
      "Board": 3846,
      "ĠWerkzeuge": 3847,
      "ĠGesang": 3848,
      "Ġtypische": 3849,
      "Ġdeutet": 3850,
      "Ġsortieren": 3851,
      "Projekten": 3852,
      "zielt": 3853,
      "Ġsteuert": 3854,
      "ĠTensorBoard": 3855,
      "Ġerfassen": 3856,
      "Neuronen": 3857,
      "Ġspezielles": 3858,
      "Kontextfenster": 3859,
      "Transfer": 3860,
      "ĠGroÃŁen": 3861,
      "Ġumzugehen": 3862,
      "explodierende": 3863,
      "Ġbekanntes": 3864,
      "ĠKlassifiz": 3865,
      "Ġgesammelt": 3866,
      "ĠgewÃ¼nschte": 3867,
      "Arbeitest": 3868,
      "ĠShaping": 3869,
      "ĠDatenpunkte": 3870,
      "ĠStufe": 3871,
      "Ġbegrenz": 3872,
      "ĠZufÃ¤ll": 3873,
      "ĠhÃ¤tte": 3874,
      "ĠKategorien": 3875,
      "Ġschwankt": 3876,
      "Ġeffizienter": 3877,
      "Ġbeeindruckend": 3878,
      "ĠursprÃ¼nglichen": 3879,
      "rivat": 3880,
      "ĠlÃ¤ngere": 3881,
      "ĠNetron": 3882,
      "genauigkeit": 3883,
      "Ġerfolgreich": 3884,
      "ĠFehlerrÃ¼ckfÃ¼hrung": 3885,
      "Zerleger": 3886,
      "Ġbegeistert": 3887,
      "SelbststÃ¤ndiges": 3888,
      "Accu": 3889,
      "Kreuzvalidierung": 3890,
      "Label": 3891,
      "Sterbende": 3892,
      "Treffergenauigkeit": 3893,
      "frist": 3894,
      "otwend": 3895,
      "Ġbeurt": 3896,
      "Ġnamens": 3897,
      "ĠMischung": 3898,
      "ĠFamilie": 3899,
      "Ġstoppt": 3900,
      "ĠErzeuger": 3901,
      "Ġgeordnete": 3902,
      "ĠVorhersagemodell": 3903,
      "Abdeckung": 3904,
      "Encoding": 3905,
      "ĠKlassifizierung": 3906,
      "Accuracy": 3907,
      "').[": 3908,
      "Adam": 3909,
      "Algorit": 3910,
      "Ber": 3911,
      "Con": 3912,
      "FrÃ¼h": 3913,
      "GD": 3914,
      "Gerade": 3915,
      "Gamma": 3916,
      "Hal": 3917,
      "Hil": 3918,
      "Kein": 3919,
      "ML": 3920,
      "Model": 3921,
      "Nicht": 3922,
      "Nach": 3923,
      "Nenn": 3924,
      "Netzen": 3925,
      "Vor": 3926,
      "aar": 3927,
      "bo": 3928,
      "blick": 3929,
      "fÃ¤lt": 3930,
      "gl": 3931,
      "gessen": 3932,
      "karten": 3933,
      "lie": 3934,
      "lassen": 3935,
      "mup": 3936,
      "na": 3937,
      "nak": 3938,
      "put": 3939,
      "sible": 3940,
      "teilt": 3941,
      "umm": 3942,
      "ys": 3943,
      "zweck": 3944,
      "Ġe": 3945,
      "Ġeg": 3946,
      "Ġew": 3947,
      "enze": 3948,
      "Ġdrei": 3949,
      "Ġdefinitiv": 3950,
      "Ġdachte": 3951,
      "unter": 3952,
      "Ġsauber": 3953,
      "eidet": 3954,
      "onenten": 3955,
      "ĠSmo": 3956,
      "ĠSnak": 3957,
      "Ġkap": 3958,
      "ĠMari": 3959,
      "ĠMaschine": 3960,
      "Ġfragt": 3961,
      "ĠLa": 3962,
      "ĠLi": 3963,
      "ĠLinien": 3964,
      "Ġlasse": 3965,
      "ĠhÃ¶ch": 3966,
      "ĠEditor": 3967,
      "ĠPuz": 3968,
      "ĠAI": 3969,
      "ĠTiefen": 3970,
      "gearbeitet": 3971,
      "Ġbewertet": 3972,
      "ĠProgrammcode": 3973,
      "bereich": 3974,
      "ĠCard": 3975,
      "ĠRes": 3976,
      "Ġdenken": 3977,
      "usp": 3978,
      "Ġdadurch": 3979,
      "terv": 3980,
      "Ġneulich": 3981,
      "Ġklass": 3982,
      "ĠtÃ¤u": 3983,
      "Ġausprobiert": 3984,
      "ĠerzÃ¤hl": 3985,
      "ĠSport": 3986,
      "Ġreg": 3987,
      "Ġrechnen": 3988,
      "Ġdirekte": 3989,
      "ĠStra": 3990,
      "ĠStÃ¤rk": 3991,
      "Einstellung": 3992,
      "ĠAnhalten": 3993,
      "ĠEinfach": 3994,
      "ĠEinfluss": 3995,
      "ĠÃ¼berle": 3996,
      "ĠÃ¼berzeu": 3997,
      "ĠVerstehen": 3998,
      "Ġallein": 3999,
      "Ġpro": 4000,
      "ĠprÃ¤zis": 4001,
      "Ġspiele": 4002,
      "Ġdurchgearbeitet": 4003,
      "Unsupervised": 4004,
      "tworten": 4005,
      "Ġerkennst": 4006,
      "ĠOffline": 4007,
      "ĠReprÃ¤sent": 4008,
      "Ġliest": 4009,
      "ĠDieses": 4010,
      "leun": 4011,
      "othing": 4012,
      "Ġverbesser": 4013,
      "Ġbesteht": 4014,
      "Ġablen": 4015,
      "Ġabsichtlich": 4016,
      "scheidungs": 4017,
      "Ġstarkes": 4018,
      "ĠRechenk": 4019,
      "ĠRechenschritte": 4020,
      "ĠHauptzweck": 4021,
      "Ġunsere": 4022,
      "ĠProzess": 4023,
      "Ġeigenes": 4024,
      "ĠdarÃ¼ber": 4025,
      "Ġihrer": 4026,
      "Also": 4027,
      "Ã¼cksichtig": 4028,
      "Ġkomplizierten": 4029,
      "inne": 4030,
      "innt": 4031,
      "ĠKontext": 4032,
      "zepte": 4033,
      "Verantwortungsvolle": 4034,
      "Ġherum": 4035,
      "KIs": 4036,
      "Ġschlechten": 4037,
      "Ã¤ss": 4038,
      "ĠReihenfolgen": 4039,
      "ĠJeder": 4040,
      "ĠFaltungsnetzwerk": 4041,
      "ĠKatzenbilder": 4042,
      "Genauigkeit": 4043,
      "ĠwÃ¤hlst": 4044,
      "Ġberechnen": 4045,
      "ĠberÃ¼cksichtig": 4046,
      "Ġgebe": 4047,
      "ĠverlÃ¤ss": 4048,
      "Auswendiglernen": 4049,
      "Neural": 4050,
      "Ġverbundenen": 4051,
      "Ġschauen": 4052,
      "ĠBedeutungen": 4053,
      "Ġkennen": 4054,
      "ĠLernmodellen": 4055,
      "Respon": 4056,
      "ĠhÃ¶rst": 4057,
      "halterv": 4058,
      "Ġungest": 4059,
      "DafÃ¼r": 4060,
      "ĠNutzer": 4061,
      "regeln": 4062,
      "Ġfertiges": 4063,
      "Ġunbekannte": 4064,
      "Ġschlaue": 4065,
      "Ġletzte": 4066,
      "Ġallgemeine": 4067,
      "ĠDatenmenge": 4068,
      "ĠVideospiele": 4069,
      "ĠFormel": 4070,
      "wÃ¤hlen": 4071,
      "Ġstellst": 4072,
      "urrentes": 4073,
      "Ġlogisch": 4074,
      "ĠSignale": 4075,
      "Unterscheidungs": 4076,
      "Prompts": 4077,
      "ĠPlatzhalterv": 4078,
      "ĠLieblingsessen": 4079,
      "Ġaktuelle": 4080,
      "Ġknusp": 4081,
      "ĠTricks": 4082,
      "beispiele": 4083,
      "Ġgestartet": 4084,
      "ĠzusÃ¤tzlichen": 4085,
      "Techniken": 4086,
      "ĠAuÃŁer": 4087,
      "ĠHandlungen": 4088,
      "Neuronale": 4089,
      "ĠMaÃŁ": 4090,
      "ĠTipps": 4091,
      "ĠauswÃ¤hlen": 4092,
      "Ġsammelt": 4093,
      "Ġbieten": 4094,
      "ĠauszuwÃ¤hlen": 4095,
      "Ġkorrigiert": 4096,
      "Koeffizient": 4097,
      "ĠZahlenliste": 4098,
      "Ġvorbereitet": 4099,
      "Ġgemeinsam": 4100,
      "Katzen": 4101,
      "ationslernen": 4102,
      "ĠBelohnungsgestaltung": 4103,
      "ĠVerstÃ¤rkendes": 4104,
      "Ġverbringe": 4105,
      "ĠWissensÃ¼bertragung": 4106,
      "Ġwertvoll": 4107,
      "ĠKonvolutionsnetzwerk": 4108,
      "ĠComputergehirn": 4109,
      "ĠErkennen": 4110,
      "Ġnachvollziehen": 4111,
      "Ġungenau": 4112,
      "Ã¶llig": 4113,
      "ĠUngewÃ¶hn": 4114,
      "Bereich": 4115,
      "FrÃ¼hes": 4116,
      "Hallo": 4117,
      "Ġegal": 4118,
      "ĠSmoothing": 4119,
      "ĠSnake": 4120,
      "ĠMario": 4121,
      "ĠPuzz": 4122,
      "ĠStÃ¤rke": 4123,
      "Neuralnetzwerk": 4124,
      "Responsible": 4125,
      "Ah": 4126,
      "Agenten": 4127,
      "Brauch": 4128,
      "Block": 4129,
      "Dar": 4130,
      "Diagramm": 4131,
      "Hyperparameter": 4132,
      "Init": 4133,
      "Ihre": 4134,
      "Ob": 4135,
      "Oft": 4136,
      "Pl": 4137,
      "PrÃ¼f": 4138,
      "avor": 4139,
      "di": 4140,
      "fel": 4141,
      "kop": 4142,
      "los": 4143,
      "lÃ¤uft": 4144,
      "ner": 4145,
      "noten": 4146,
      "rend": 4147,
      "rekt": 4148,
      "rupp": 4149,
      "sinn": 4150,
      "sweise": 4151,
      "sÃ¤tze": 4152,
      "training": 4153,
      "tag": 4154,
      "wenig": 4155,
      "wissen": 4156,
      "zÃ¼ge": 4157,
      "Ġ-": 4158,
      "Ġro": 4159,
      "enken": 4160,
      "inÃ¤r": 4161,
      "inander": 4162,
      "Ġdient": 4163,
      "stark": 4164,
      "ieinander": 4165,
      "aszin": 4166,
      "Ġsetzt": 4167,
      "anken": 4168,
      "Ġeingestellt": 4169,
      "Ġged": 4170,
      "Ġzer": 4171,
      "uteilen": 4172,
      "Ġnah": 4173,
      "Ġnotwend": 4174,
      "ĠDL": 4175,
      "Ã¼lt": 4176,
      "Ã¼ler": 4177,
      "ellman": 4178,
      "ĠunabhÃ¤ng": 4179,
      "etr": 4180,
      "Ġkoch": 4181,
      "ĠMischen": 4182,
      "ĠfÃ¤llt": 4183,
      "Ġfaszin": 4184,
      "ĠLaufen": 4185,
      "Ġleider": 4186,
      "ĠEmbedding": 4187,
      "indet": 4188,
      "ĠPan": 4189,
      "ĠAl": 4190,
      "ĠAgent": 4191,
      "ennetz": 4192,
      "ĠBinÃ¤r": 4193,
      "ĠBellman": 4194,
      "Ġvertra": 4195,
      "Ã¶ck": 4196,
      "ĠDatenpunkt": 4197,
      "ĠKomplexitÃ¤t": 4198,
      "ĠKetten": 4199,
      "ĠKanten": 4200,
      "ĠTiefe": 4201,
      "abt": 4202,
      "ĠFl": 4203,
      "ĠFol": 4204,
      "ĠFot": 4205,
      "ĠFÃ¤lsch": 4206,
      "ĠFavor": 4207,
      "gegen": 4208,
      "geordnet": 4209,
      "erkenn": 4210,
      "omponenten": 4211,
      "Ġbeieinander": 4212,
      "dest": 4213,
      "ĠGel": 4214,
      "ĠGut": 4215,
      "Ġanzuf": 4216,
      "iltern": 4217,
      "Ġmanche": 4218,
      "Ġvieles": 4219,
      "Ġvielseit": 4220,
      "ĠComputerleistung": 4221,
      "Ã¤re": 4222,
      "Ġgenutz": 4223,
      "ĠSchieflage": 4224,
      "ĠSchalter": 4225,
      "ĠSchÃ¼ler": 4226,
      "Ã¤nge": 4227,
      "Ġerinnern": 4228,
      "Ġgenauere": 4229,
      "Ġhatte": 4230,
      "Ġvorsichtig": 4231,
      "Ġred": 4232,
      "Ġreicht": 4233,
      "ĠInhal": 4234,
      "Ġlernende": 4235,
      "Ġbesseren": 4236,
      "Ġbesseres": 4237,
      "ĠEinbett": 4238,
      "ĠHer": 4239,
      "ĠHin": 4240,
      "ĠGrenze": 4241,
      "ĠVerbindung": 4242,
      "Ġgez": 4243,
      "Ġpaar": 4244,
      "ommst": 4245,
      "ĠOder": 4246,
      "ĠOne": 4247,
      "Ġbesonderer": 4248,
      "iziert": 4249,
      "ĠabhÃ¤ngen": 4250,
      "Ġzusammenfasst": 4251,
      "Ã¤chen": 4252,
      "ĠManchmal": 4253,
      "Schnitzel": 4254,
      "ĠTeilen": 4255,
      "Ã¤hlt": 4256,
      "ĠZeitreihen": 4257,
      "ĠAuswendiglernen": 4258,
      "folg": 4259,
      "Ġwiederher": 4260,
      "mension": 4261,
      "ĠgrÃ¶ÃŁere": 4262,
      "Ġgemessen": 4263,
      "Ġgemerkt": 4264,
      "Ġdarstellen": 4265,
      "rank": 4266,
      "ĠEingangs": 4267,
      "ienten": 4268,
      "Ġweitergeben": 4269,
      "ĠKontroll": 4270,
      "ĠKonzept": 4271,
      "Ġbeschleun": 4272,
      "laublich": 4273,
      "Angenommen": 4274,
      "Ingenieur": 4275,
      "Input": 4276,
      "Ġeinzigen": 4277,
      "StÃ¤rken": 4278,
      "ĠwÃ¤hle": 4279,
      "ĠÃľbungsaufgaben": 4280,
      "ĠÃ¤hnlicher": 4281,
      "Ġbisher": 4282,
      "Ġpassend": 4283,
      "Ġpassende": 4284,
      "Ġanfange": 4285,
      "ĠGegen": 4286,
      "Welcher": 4287,
      "Ġgefragt": 4288,
      "ĠmÃ¶chtest": 4289,
      "findlich": 4290,
      "Shaping": 4291,
      "plan": 4292,
      "Ġunglaublich": 4293,
      "ĠDetektiv": 4294,
      "ĠbeschÃ¤ftigen": 4295,
      "Quantisierungs": 4296,
      "ĠGesamt": 4297,
      "BlÃ¶ck": 4298,
      "Ġempf": 4299,
      "Ġempfindlich": 4300,
      "Tore": 4301,
      "Ġachtet": 4302,
      "Ġstellt": 4303,
      "ĠprÃ¼fst": 4304,
      "ĠMessgrÃ¶ÃŁe": 4305,
      "ĠGerÃ¤te": 4306,
      "ĠDurchschnitt": 4307,
      "Ġgesamten": 4308,
      "Ġtechnische": 4309,
      "Ġallgemeinen": 4310,
      "prÃ¼fung": 4311,
      "fÃ¼hrt": 4312,
      "ĠfÃ¼hle": 4313,
      "ĠTransferlernen": 4314,
      "ĠNormalisierung": 4315,
      "ĠRestverbindungen": 4316,
      "Ġsammeln": 4317,
      "Ġbietet": 4318,
      "Koeffizienten": 4319,
      "Ġwiederholende": 4320,
      "ĠhinzugefÃ¼gt": 4321,
      "ĠAblÃ¤ufe": 4322,
      "okum": 4323,
      "ĠHilfe": 4324,
      "Generativ": 4325,
      "Ġenorm": 4326,
      "Ġmedizinische": 4327,
      "Ġprobiere": 4328,
      "Ġtestet": 4329,
      "Bevor": 4330,
      "Feinabst": 4331,
      "Ġwiederkehrende": 4332,
      "Ġfehlerhafte": 4333,
      "ĠSchachzÃ¼ge": 4334,
      "ĠObwohl": 4335,
      "Sprachmodell": 4336,
      "Zahlen": 4337,
      "ooling": 4338,
      "Ġsinkt": 4339,
      "allbacks": 4340,
      "Ġideal": 4341,
      "ĠRecheneinheit": 4342,
      "Verlustwert": 4343,
      "ĠListe": 4344,
      "ĠtÃ¤uschen": 4345,
      "ĠÃ¼berlege": 4346,
      "ĠReprÃ¤sentationslernen": 4347,
      "ĠRechenkraft": 4348,
      "ĠPlatzhaltervariablen": 4349,
      "ĠAuÃŁerdem": 4350,
      "ĠPuzzle": 4351,
      "Initialisierung": 4352,
      "ĠKettenregel": 4353,
      "ĠFavorit": 4354,
      "Ġanzufangen": 4355,
      "ĠInhalte": 4356,
      "BlÃ¶cke": 4357,
      "Feinabstimmung": 4358,
      "\".": 4359,
      "All": 4360,
      "Besch": 4361,
      "Dann": 4362,
      "Durch": 4363,
      "FÃ¼": 4364,
      "LL": 4365,
      "Leider": 4366,
      "Mach": 4367,
      "Optim": 4368,
      "Pooling": 4369,
      "Super": 4370,
      "Ta": 4371,
      "Techn": 4372,
      "Zell": 4373,
      "ahn": 4374,
      "br": 4375,
      "buch": 4376,
      "best": 4377,
      "die": 4378,
      "frei": 4379,
      "falt": 4380,
      "fÃ¤nger": 4381,
      "gÃ¼lt": 4382,
      "haltung": 4383,
      "komponenten": 4384,
      "licht": 4385,
      "lass": 4386,
      "leitung": 4387,
      "machen": 4388,
      "nung": 4389,
      "nimmt": 4390,
      "positiv": 4391,
      "runden": 4392,
      "rgend": 4393,
      "vort": 4394,
      "vektor": 4395,
      "zial": 4396,
      "erw": 4397,
      "inie": 4398,
      "innen": 4399,
      "Ġdanach": 4400,
      "Ġwegen": 4401,
      "eim": 4402,
      "ance": 4403,
      "Ġeinstellen": 4404,
      "ele": 4405,
      "elfer": 4406,
      "Ġmod": 4407,
      "raum": 4408,
      "Ġbet": 4409,
      "ĠvÃ¶llig": 4410,
      "ata": 4411,
      "Ġnein": 4412,
      "ĠnÃ¤": 4413,
      "Ġzugeordnet": 4414,
      "ĠDokum": 4415,
      "igit": 4416,
      "onst": 4417,
      "ĠSuch": 4418,
      "Ġkam": 4419,
      "orgen": 4420,
      "ĠMir": 4421,
      "ĠMeine": 4422,
      "Ġform": 4423,
      "ition": 4424,
      "ĠLernt": 4425,
      "ĠEmp": 4426,
      "ĠExp": 4427,
      "ĠParameter": 4428,
      "eite": 4429,
      "eitern": 4430,
      "ĠBl": 4431,
      "ĠBesser": 4432,
      "ĠBear": 4433,
      "Ġverschwind": 4434,
      "auch": 4435,
      "tegra": 4436,
      "ĠKÃ¶n": 4437,
      "ĠKarte": 4438,
      "ĠTiere": 4439,
      "ĠTic": 4440,
      "ĠFang": 4441,
      "ĠFine": 4442,
      "ume": 4443,
      "Ġschrei": 4444,
      "Ġbeizu": 4445,
      "ged": 4446,
      "ĠGerade": 4447,
      "ĠGamma": 4448,
      "ĠNTM": 4449,
      "Ġintelligen": 4450,
      "ĠvielfÃ¤lt": 4451,
      "hlst": 4452,
      "Ġklap": 4453,
      "passe": 4454,
      "Ġtust": 4455,
      "Ġsteck": 4456,
      "Ġstarten": 4457,
      "ungsverbindungen": 4458,
      "ĠSpez": 4459,
      "sage": 4460,
      "Ġrecht": 4461,
      "Ġruh": 4462,
      "ĠErfolge": 4463,
      "ĠErfolg": 4464,
      "ĠIntegra": 4465,
      "ĠStÃ¶r": 4466,
      "Einheiten": 4467,
      "ĠAnst": 4468,
      "ĠAnpass": 4469,
      "ĠSpracherkenn": 4470,
      "sprach": 4471,
      "speicher": 4472,
      "olfen": 4473,
      "ĠÃ¼bertrainiert": 4474,
      "ĠHaust": 4475,
      "Ġmeint": 4476,
      "ĠGrenzen": 4477,
      "ĠVerarbeitung": 4478,
      "ĠVerantwortungsvolle": 4479,
      "Ġschnelles": 4480,
      "Ġprivat": 4481,
      "Ġzwingt": 4482,
      "ffe": 4483,
      "ĠenthÃ¤lt": 4484,
      "ĠRezepte": 4485,
      "ĠVorgehen": 4486,
      "ĠVorgang": 4487,
      "ĠVorwÃ¤rts": 4488,
      "reihe": 4489,
      "Ġklaren": 4490,
      "Ġabschn": 4491,
      "Ġzusammenstehen": 4492,
      "ĠTextdaten": 4493,
      "ĠTextmen": 4494,
      "ĠRechenzeit": 4495,
      "ĠHauptziel": 4496,
      "ĠHauptproblem": 4497,
      "ĠZeitrÃ¤": 4498,
      "ĠÃľberblick": 4499,
      "Ġeigener": 4500,
      "ĠBerechnung": 4501,
      "ĠAbw": 4502,
      "ĠAbfolge": 4503,
      "Ġkomplizier": 4504,
      "Ġspezif": 4505,
      "ĠWichtige": 4506,
      "ĠZusammenfassung": 4507,
      "Verst": 4508,
      "Verbindungen": 4509,
      "Ġsicherer": 4510,
      "Ġsicherzustellen": 4511,
      "Ġsage": 4512,
      "AnfÃ¤nger": 4513,
      "Interpretierbarkeit": 4514,
      "ĠInferenz": 4515,
      "ĠnÃ¼tzliche": 4516,
      "ĠgehÃ¶ren": 4517,
      "Ġgeholfen": 4518,
      "Ġmaschinellem": 4519,
      "empo": 4520,
      "Ġverliert": 4521,
      "Ġkomplexes": 4522,
      "Ġbisschen": 4523,
      "weiser": 4524,
      "weisung": 4525,
      "ĠGehirnz": 4526,
      "Ġvermeidet": 4527,
      "gesehen": 4528,
      "ction": 4529,
      "Ġpassenden": 4530,
      "Ġkennst": 4531,
      "findet": 4532,
      "findlichkeit": 4533,
      "ĠmÃ¶glichst": 4534,
      "Toe": 4535,
      "ĠVideos": 4536,
      "ĠNutzung": 4537,
      "ampf": 4538,
      "listen": 4539,
      "ĠGenerative": 4540,
      "reten": 4541,
      "sÃ¤tzen": 4542,
      "Tokens": 4543,
      "ĠSchwierigkeit": 4544,
      "ĠKleine": 4545,
      "ĠFormen": 4546,
      "Ġgeschickt": 4547,
      "Ġgeschrieben": 4548,
      "gelernt": 4549,
      "ĠspÃ¤tere": 4550,
      "ĠMesswerte": 4551,
      "Ġbeibringen": 4552,
      "Ġspricht": 4553,
      "codierung": 4554,
      "Ġgeteilt": 4555,
      "ĠVariablen": 4556,
      "Ġschlimmer": 4557,
      "ĠhÃ¤ufiges": 4558,
      "Ġaktu": 4559,
      "verschwindende": 4560,
      "Ġplan": 4561,
      "Ġspeichert": 4562,
      "ĠComputernetzwerken": 4563,
      "ĠzusÃ¤tzliche": 4564,
      "ĠErfahrung": 4565,
      "ĠAufteilung": 4566,
      "ĠFarben": 4567,
      "Neuronales": 4568,
      "ĠMaÃŁe": 4569,
      "ĠAlltag": 4570,
      "ĠStrukturen": 4571,
      "Ġtypisches": 4572,
      "Transformer": 4573,
      "ĠGroÃŁe": 4574,
      "Ġumzuwandeln": 4575,
      "Ġkorrigieren": 4576,
      "ĠZahlenlisten": 4577,
      "Ġverwirrt": 4578,
      "ĠSicherheit": 4579,
      "ĠÃĦhnlichkeiten": 4580,
      "Ġnegative": 4581,
      "Zuerst": 4582,
      "duktiv": 4583,
      "Ġmathematische": 4584,
      "Ġsparen": 4585,
      "Ġabweichen": 4586,
      "Ġuntersuchen": 4587,
      "ĠMittelwert": 4588,
      "ĠKleinere": 4589,
      "ĠAnwendungen": 4590,
      "Ġvorhergesagt": 4591,
      "ĠAktionen": 4592,
      "Ġvereinfachen": 4593,
      "Ġanalysieren": 4594,
      "Ġerledigen": 4595,
      "ĠRohdaten": 4596,
      "Nervennetz": 4597,
      "hase": 4598,
      "zweif": 4599,
      "ĠermÃ¶glicht": 4600,
      "ĠÃ¼berprÃ¼fe": 4601,
      "ĠRisiken": 4602,
      "Kennst": 4603,
      "ĠWarmup": 4604,
      "Ġinteressant": 4605,
      "ĠVielfalt": 4606,
      "ĠOrd": 4607,
      "ĠRekurrentes": 4608,
      "Ausgabewert": 4609,
      "Ġbeurteilen": 4610,
      "glat": 4611,
      "Ġewig": 4612,
      "Ġproduktiv": 4613,
      "ĠberÃ¼cksichtigt": 4614,
      "Ġknusprig": 4615,
      "ĠUngewÃ¶hnliches": 4616,
      "Diagramme": 4617,
      "Ġgedacht": 4618,
      "ĠBinÃ¤rcodierung": 4619,
      "ĠFolgen": 4620,
      "LLM": 4621,
      "Tac": 4622,
      "Technisch": 4623,
      "ĠLerntempo": 4624,
      "ĠBearbeit": 4625,
      "Ġbeizubringen": 4626,
      "Ġklappt": 4627,
      "ĠStÃ¶rungen": 4628,
      "ĠAnpassungen": 4629,
      "ĠSpracherkennung": 4630,
      "ĠZeitrÃ¤ume": 4631,
      "Aktivierungs": 4632,
      "Emp": 4633,
      "HÃ¶r": 4634,
      "Ihr": 4635,
      "Nun": 4636,
      "Rek": 4637,
      "RMSE": 4638,
      "Test": 4639,
      "Toren": 4640,
      "Uff": 4641,
      "User": 4642,
      "Viele": 4643,
      "VollstÃ¤ndigkeit": 4644,
      "av": 4645,
      "aktiv": 4646,
      "bald": 4647,
      "cien": 4648,
      "dlich": 4649,
      "fal": 4650,
      "fest": 4651,
      "fassen": 4652,
      "gut": 4653,
      "giert": 4654,
      "kret": 4655,
      "ox": 4656,
      "prÃ¼": 4657,
      "tik": 4658,
      "wer": 4659,
      "wach": 4660,
      "zprÃ¼fung": 4661,
      "ĠÃ¶": 4662,
      "Ġrob": 4663,
      "ĠÃ¤nder": 4664,
      "ente": 4665,
      "erial": 4666,
      "eint": 4667,
      "Ġsei": 4668,
      "ĠweiÃŁt": 4669,
      "esent": 4670,
      "anpassen": 4671,
      "Ġeinzu": 4672,
      "Ġmaximal": 4673,
      "Ġbrem": 4674,
      "atisch": 4675,
      "Ġzent": 4676,
      "Ġziehen": 4677,
      "ror": 4678,
      "roffen": 4679,
      "utt": 4680,
      "Ġnenn": 4681,
      "ehst": 4682,
      "ĠDr": 4683,
      "ĠData": 4684,
      "igent": 4685,
      "ong": 4686,
      "ĠSoll": 4687,
      "ĠSache": 4688,
      "ĠSGD": 4689,
      "ĠSumm": 4690,
      "ĠSonst": 4691,
      "ĠScien": 4692,
      "Ġunf": 4693,
      "Ġunber": 4694,
      "Ġunver": 4695,
      "Ġunerw": 4696,
      "ichter": 4697,
      "Ġkomme": 4698,
      "orrekt": 4699,
      "ĠMot": 4700,
      "ĠMeistens": 4701,
      "Ġfol": 4702,
      "Ġfrei": 4703,
      "ĠLog": 4704,
      "ĠLesen": 4705,
      "ĠLinie": 4706,
      "Ġlust": 4707,
      "Ġleist": 4708,
      "ĠlÃ¤nger": 4709,
      "ĠhÃ¶rt": 4710,
      "Ġhandelt": 4711,
      "ĠPy": 4712,
      "schung": 4713,
      "schau": 4714,
      "schÃ¤tzen": 4715,
      "ĠBal": 4716,
      "ĠBÃ¼cher": 4717,
      "ĠBox": 4718,
      "Ġverteilt": 4719,
      "ĠWetter": 4720,
      "ause": 4721,
      "ĠDatenanpassung": 4722,
      "ĠDatensÃ¤tzen": 4723,
      "ĠKompl": 4724,
      "ĠKrank": 4725,
      "ĠKampf": 4726,
      "ĠTÃ¼r": 4727,
      "ablauf": 4728,
      "ĠFach": 4729,
      "euert": 4730,
      "ĠschÃ¶n": 4731,
      "Ġschaff": 4732,
      "ichtige": 4733,
      "Ġbez": 4734,
      "Ġbeenden": 4735,
      "berechnung": 4736,
      "denkt": 4737,
      "ĠCha": 4738,
      "ĠNein": 4739,
      "ĠRL": 4740,
      "Ġangibt": 4741,
      "Ġanzus": 4742,
      "Ġantworten": 4743,
      "omputer": 4744,
      "Ġmanuelle": 4745,
      "Ġvieler": 4746,
      "ĠIm": 4747,
      "Ġopt": 4748,
      "Ġoben": 4749,
      "Ġmitt": 4750,
      "ĠZelt": 4751,
      "ĠZellen": 4752,
      "ĠZwischen": 4753,
      "Ġumge": 4754,
      "Ġdahin": 4755,
      "Ġwichtiges": 4756,
      "iertes": 4757,
      "Ġaufzu": 4758,
      "Ġaufwendig": 4759,
      "Ġsteckt": 4760,
      "Ġeinfachsten": 4761,
      "Ġeinfachere": 4762,
      "Ġsichern": 4763,
      "Ġerscha": 4764,
      "sagt": 4765,
      "btraum": 4766,
      "ĠrÃ¼ck": 4767,
      "ĠErstellen": 4768,
      "ĠIngenieur": 4769,
      "ĠInterpretierbarkeit": 4770,
      "Ã¼berwachtes": 4771,
      "isches": 4772,
      "ĠFehlerberechnung": 4773,
      "ĠStatt": 4774,
      "immen": 4775,
      "ĠAnzeichen": 4776,
      "ĠEinmal": 4777,
      "endem": 4778,
      "ĠÃ¼berlegen": 4779,
      "ĠÃ¼bersetzen": 4780,
      "ĠHelfer": 4781,
      "verst": 4782,
      "verwenden": 4783,
      "versteht": 4784,
      "Ġgekommen": 4785,
      "ĠOber": 4786,
      "ĠOrt": 4787,
      "ĠVorbereitung": 4788,
      "ektoren": 4789,
      "Ġanderes": 4790,
      "iker": 4791,
      "ĠÃľb": 4792,
      "legt": 4793,
      "Ġverbindet": 4794,
      "Ġgesp": 4795,
      "Ġgespro": 4796,
      "Ġtrainierte": 4797,
      "Ġganzes": 4798,
      "Ġzusammenge": 4799,
      "echenbar": 4800,
      "Ġselbstlernen": 4801,
      "funktionen": 4802,
      "Schau": 4803,
      "ĠWieder": 4804,
      "echner": 4805,
      "ĠRechenregel": 4806,
      "ĠAusgaben": 4807,
      "ĠAusgang": 4808,
      "Woher": 4809,
      "Ġbekommst": 4810,
      "ErklÃ¤rbarkeit": 4811,
      "Ġgleiche": 4812,
      "ĠProzent": 4813,
      "ĠgrÃ¶ÃŁeren": 4814,
      "oment": 4815,
      "Ġdarf": 4816,
      "Lerngeschwindigkeit": 4817,
      "zeug": 4818,
      "ĠBereichen": 4819,
      "ĠÃ¤hnlichen": 4820,
      "ĠSystemen": 4821,
      "Ġhinaus": 4822,
      "ĠAblauf": 4823,
      "baust": 4824,
      "iment": 4825,
      "imieren": 4826,
      "ienz": 4827,
      "Ġweitergibt": 4828,
      "Rec": 4829,
      "Ġkonkret": 4830,
      "ĠBereiche": 4831,
      "ĠBefehl": 4832,
      "Ã¤rkendem": 4833,
      "Ġlangfrist": 4834,
      "genteil": 4835,
      "Ġversuchen": 4836,
      "urven": 4837,
      "Ġgebraucht": 4838,
      "ĠZuerst": 4839,
      "Ġentwickle": 4840,
      "Auswahl": 4841,
      "Normalerweise": 4842,
      "Ġtiefes": 4843,
      "Ġgeworden": 4844,
      "Ġgewinnt": 4845,
      "ĠSoftwareentwick": 4846,
      "Ġherauszuf": 4847,
      "Ġprogrammiert": 4848,
      "Ġmagst": 4849,
      "ĠGradients": 4850,
      "ĠQu": 4851,
      "Aufmerksamkeit": 4852,
      "Aufmerksamkeits": 4853,
      "ffizienz": 4854,
      "Ġanfangs": 4855,
      "Ġbewerte": 4856,
      "ĠGefahr": 4857,
      "ĠGegenteil": 4858,
      "ĠLernmodelle": 4859,
      "Ġbestimmtes": 4860,
      "ResNets": 4861,
      "ĠFehlerk": 4862,
      "platz": 4863,
      "Damit": 4864,
      "ĠKreuzprÃ¼fung": 4865,
      "ĠEntwickler": 4866,
      "Ġschlaues": 4867,
      "ĠErklÃ¤rbarkeit": 4868,
      "ĠDazu": 4869,
      "alidierungs": 4870,
      "ĠGenerativen": 4871,
      "Ġdeutsch": 4872,
      "ĠStartwerten": 4873,
      "holen": 4874,
      "Entwicklung": 4875,
      "ĠÃ¼ben": 4876,
      "ĠbehÃ¤lt": 4877,
      "setzung": 4878,
      "ĠRobot": 4879,
      "Ġgetroffen": 4880,
      "Ã¤lscht": 4881,
      "ĠKochen": 4882,
      "Ġanstren": 4883,
      "Ġflexibel": 4884,
      "Ġriesige": 4885,
      "ĠBewertung": 4886,
      "ĠDurchlauf": 4887,
      "Ġautomatische": 4888,
      "Ġbehebt": 4889,
      "ĠUnterhaltung": 4890,
      "ĠauswÃ¤hlt": 4891,
      "Ġbeeindruckt": 4892,
      "ĠBausteine": 4893,
      "Ġendlich": 4894,
      "ĠendgÃ¼lt": 4895,
      "Ġnervt": 4896,
      "Ġoffene": 4897,
      "Ġgesammel": 4898,
      "ĠgewÃ¼nschten": 4899,
      "Ġkreative": 4900,
      "Ġfehlt": 4901,
      "Ġfehlen": 4902,
      "volutional": 4903,
      "Generator": 4904,
      "Ġmedizinischen": 4905,
      "ĠWirk": 4906,
      "ĠÃľbersetzungen": 4907,
      "Ġuntersucht": 4908,
      "Ġtestest": 4909,
      "ĠPrÃ¼fdatensatz": 4910,
      "Ġgrundlegend": 4911,
      "Ġkomisch": 4912,
      "ĠFortschritte": 4913,
      "ĠFortschritt": 4914,
      "ĠAbkÃ¼rzung": 4915,
      "ĠAbkÃ¼rzungsverbindungen": 4916,
      "Ġvorhergesag": 4917,
      "zusetzen": 4918,
      "echseln": 4919,
      "ĠSprachprogramme": 4920,
      "ĠSprachprogrammen": 4921,
      "ĠVerÃ¤nderung": 4922,
      "ĠVerÃ¤nderungen": 4923,
      "Aufteilung": 4924,
      "Ergebnisse": 4925,
      "ĠunnÃ¶tige": 4926,
      "Ġhandeln": 4927,
      "Ġtrinkst": 4928,
      "Ġerstelle": 4929,
      "Ġdurchschnittlichen": 4930,
      "ĠgleichmÃ¤ÃŁig": 4931,
      "Ġbegrenzt": 4932,
      "ĠZufÃ¤lligkeit": 4933,
      "Algorithmus": 4934,
      "Convolutional": 4935,
      "gessens": 4936,
      "nahmen": 4937,
      "Ġkaputt": 4938,
      "ĠhÃ¶chsten": 4939,
      "Ġklassische": 4940,
      "ĠÃ¼berzeugend": 4941,
      "Ġablenken": 4942,
      "ĠungestÃ¶rt": 4943,
      "kopien": 4944,
      "Ġnotwendig": 4945,
      "ĠAlbtraum": 4946,
      "Ġvertrau": 4947,
      "ĠDatenpunkten": 4948,
      "ĠGelernte": 4949,
      "Ġreduz": 4950,
      "ĠEinbettungs": 4951,
      "Alles": 4952,
      "komponentenanalyse": 4953,
      "igital": 4954,
      "ĠEmpfehl": 4955,
      "Ġintelligente": 4956,
      "Ġstecken": 4957,
      "ĠIntegrated": 4958,
      "ĠHaustier": 4959,
      "Ġabschneidet": 4960,
      "ĠOrdnung": 4961,
      "glattere": 4962,
      "Empfindlichkeit": 4963,
      "HÃ¶rst": 4964,
      "Ġnennen": 4965,
      "ĠSumme": 4966,
      "ĠScience": 4967,
      "Ġunberechenbar": 4968,
      "ĠMotor": 4969,
      "Ġanzusehen": 4970,
      "Ġoptimal": 4971,
      "ĠZeltfest": 4972,
      "ĠrÃ¼ckwÃ¤rts": 4973,
      "Ġgesprochen": 4974,
      "Ġanstrengend": 4975,
      "!'[": 4976,
      "Ap": 4977,
      "Aktiv": 4978,
      "Bot": 4979,
      "Bist": 4980,
      "CIFAR": 4981,
      "Computer": 4982,
      "Dabei": 4983,
      "Ex": 4984,
      "GNN": 4985,
      "GRU": 4986,
      "Hat": 4987,
      "Haupt": 4988,
      "Ideen": 4989,
      "KÃ¼nst": 4990,
      "LP": 4991,
      "Lehrer": 4992,
      "Linien": 4993,
      "Mann": 4994,
      "Mag": 4995,
      "Macht": 4996,
      "MSp": 4997,
      "MultikollinearitÃ¤t": 4998,
      "NTM": 4999,
      "Neben": 5000,
      "NLP": 5001,
      "PrÃ¤zision": 5002,
      "Supervised": 5003,
      "Teil": 5004,
      "Tiefe": 5005,
      "Viel": 5006,
      "Vide": 5007,
      "Variablen": 5008,
      "asten": 5009,
      "bil": 5010,
      "besonder": 5011,
      "bild": 5012,
      "dd": 5013,
      "ean": 5014,
      "eed": 5015,
      "fs": 5016,
      "flegen": 5017,
      "gn": 5018,
      "gten": 5019,
      "grÃ¶ÃŁ": 5020,
      "gangen": 5021,
      "halt": 5022,
      "iff": 5023,
      "kn": 5024,
      "kasten": 5025,
      "linear": 5026,
      "mÃ¶glichkeit": 5027,
      "neren": 5028,
      "netzen": 5029,
      "oft": 5030,
      "over": 5031,
      "oben": 5032,
      "omen": 5033,
      "ph": 5034,
      "perf": 5035,
      "rÃ¤n": 5036,
      "sachen": 5037,
      "tion": 5038,
      "tsam": 5039,
      "teilen": 5040,
      "vest": 5041,
      "weil": 5042,
      "zen": 5043,
      "zeich": 5044,
      "Ġ2": 5045,
      "ĠU": 5046,
      "Ġeu": 5047,
      "Ġpasse": 5048,
      "eriment": 5049,
      "inal": 5050,
      "Ġdr": 5051,
      "Ġdan": 5052,
      "Ġdessen": 5053,
      "Ġdrauf": 5054,
      "stest": 5055,
      "stand": 5056,
      "stÃ¼ck": 5057,
      "stchen": 5058,
      "eindi": 5059,
      "unst": 5060,
      "under": 5061,
      "Ġwach": 5062,
      "Ġwand": 5063,
      "Ġirgend": 5064,
      "Ġign": 5065,
      "anh": 5066,
      "Ġeinheit": 5067,
      "elst": 5068,
      "Ġmin": 5069,
      "Ġmus": 5070,
      "Ġmark": 5071,
      "Ġmora": 5072,
      "Ġgern": 5073,
      "Ġgehe": 5074,
      "Ġbil": 5075,
      "Ġbast": 5076,
      "Ġadd": 5077,
      "ehmen": 5078,
      "Ġzug": 5079,
      "Ġzuzu": 5080,
      "Ġzuordnet": 5081,
      "Ġzuordnen": 5082,
      "ĠDort": 5083,
      "Ã¼te": 5084,
      "Ã¼che": 5085,
      "eller": 5086,
      "ĠSort": 5087,
      "ĠSamm": 5088,
      "ĠSachen": 5089,
      "ĠSÃ¤tzen": 5090,
      "Ġunten": 5091,
      "Ã¤stchen": 5092,
      "ĠkÃ¤": 5093,
      "ore": 5094,
      "ĠMitte": 5095,
      "ĠMoment": 5096,
      "Ġfr": 5097,
      "ĠfÃ¤ngt": 5098,
      "Ġfasst": 5099,
      "itze": 5100,
      "ĠLie": 5101,
      "Ġlos": 5102,
      "Ġhart": 5103,
      "ĠEffizienz": 5104,
      "schaltet": 5105,
      "ĠBetr": 5106,
      "ĠverÃ¤nder": 5107,
      "Ġverzweif": 5108,
      "ĠWer": 5109,
      "ĠWoch": 5110,
      "ĠWohl": 5111,
      "ĠWald": 5112,
      "ĠKenn": 5113,
      "ĠKurz": 5114,
      "ĠKurve": 5115,
      "ĠKette": 5116,
      "ĠKapazitÃ¤t": 5117,
      "ĠKÃ¼che": 5118,
      "ĠTon": 5119,
      "ĠTasch": 5120,
      "ĠTrenn": 5121,
      "ĠFil": 5122,
      "ĠFund": 5123,
      "ĠFaktoren": 5124,
      "ĠFeed": 5125,
      "Ġschick": 5126,
      "Ġschreibt": 5127,
      "Ġschickt": 5128,
      "fter": 5129,
      "bergab": 5130,
      "ĠGeh": 5131,
      "ĠGew": 5132,
      "ĠCallbacks": 5133,
      "ĠNav": 5134,
      "Ġinnen": 5135,
      "Ġintern": 5136,
      "ĠRat": 5137,
      "ĠRechnen": 5138,
      "Ġantwort": 5139,
      "Ġsogen": 5140,
      "gener": 5141,
      "ĠZauber": 5142,
      "Ġumfasst": 5143,
      "esse": 5144,
      "Ġwirst": 5145,
      "Ġwirkt": 5146,
      "tert": 5147,
      "tergrund": 5148,
      "eilst": 5149,
      "Ġklu": 5150,
      "Ġaufs": 5151,
      "Ġaufeinander": 5152,
      "Ġteilen": 5153,
      "Ġtrennt": 5154,
      "ĠLernmethoden": 5155,
      "Ġausz": 5156,
      "Ġausgew": 5157,
      "Ġsto": 5158,
      "ĠstÃ¶rt": 5159,
      "Ġstartet": 5160,
      "Ġeinfacheren": 5161,
      "Ã¤nde": 5162,
      "Ã¤ngen": 5163,
      "Ã¤ngst": 5164,
      "Ġversteck": 5165,
      "Ġversteckt": 5166,
      "ĠvorwÃ¤rts": 5167,
      "Ġreichen": 5168,
      "Ġrisk": 5169,
      "ĠError": 5170,
      "ĠInneren": 5171,
      "ĠFehlers": 5172,
      "ĠStabil": 5173,
      "ĠStrate": 5174,
      "ĠAnpassung": 5175,
      "ĠAnsatz": 5176,
      "spr": 5177,
      "spar": 5178,
      "ĠÃ¼bersehen": 5179,
      "ĠÃ¼berall": 5180,
      "formern": 5181,
      "Ġwerde": 5182,
      "Ġmeinst": 5183,
      "vers": 5184,
      "ĠVerstÃ¤ndnis": 5185,
      "ĠVergessens": 5186,
      "spielen": 5187,
      "ĠgeÃ¤ndert": 5188,
      "Ġgezielt": 5189,
      "Ġpflegen": 5190,
      "Ġspringt": 5191,
      "Ġdurcheinander": 5192,
      "Ã¶rter": 5193,
      "ĠOp": 5194,
      "Ġzeigst": 5195,
      "ffektiv": 5196,
      "scheider": 5197,
      "Ġentdeck": 5198,
      "reis": 5199,
      "reifen": 5200,
      "werkzeug": 5201,
      "ĠUnsinn": 5202,
      "Ġnachdenken": 5203,
      "Ġneuesten": 5204,
      "echtigkeit": 5205,
      "Ġgelesen": 5206,
      "rezept": 5207,
      "ĠZahlenreihe": 5208,
      "ots": 5209,
      "Ġnochmal": 5210,
      "Ġbestehen": 5211,
      "Ġbestraft": 5212,
      "Ġseltsam": 5213,
      "ĠablÃ¤uft": 5214,
      "ĠTrainingsbeispiele": 5215,
      "Ã¤che": 5216,
      "ament": 5217,
      "Schw": 5218,
      "apier": 5219,
      "ĠEinstellmÃ¶glichkeit": 5220,
      "eschicht": 5221,
      "ĠRechenprogramm": 5222,
      "ĠHauptvort": 5223,
      "ĠZeitpunkt": 5224,
      "ĠAusgab": 5225,
      "Ġbekannten": 5226,
      "Ġbekomme": 5227,
      "ErklÃ¤ren": 5228,
      "angepasst": 5229,
      "ĠMerkmalen": 5230,
      "Ġdargestellt": 5231,
      "Lernrate": 5232,
      "ranspar": 5233,
      "ĠSystems": 5234,
      "Ġhinzuf": 5235,
      "ĠfÃ¼gt": 5236,
      "zentration": 5237,
      "AbkÃ¼rz": 5238,
      "gerechnet": 5239,
      "Ġnormales": 5240,
      "hÃ¤ngt": 5241,
      "Ġweiterl": 5242,
      "Ġweiterentwick": 5243,
      "ĠKonzentration": 5244,
      "Ã¤llig": 5245,
      "geschickt": 5246,
      "flÃ¼s": 5247,
      "Ġverhalten": 5248,
      "laufen": 5249,
      "Beides": 5250,
      "Ġkontroll": 5251,
      "Ã¼tzt": 5252,
      "ĠFaltungsnetzen": 5253,
      "ĠTransformern": 5254,
      "Anweisung": 5255,
      "Information": 5256,
      "ĠBezug": 5257,
      "Ġeinzig": 5258,
      "Ġeinzige": 5259,
      "Ġeinzuteilen": 5260,
      "Startw": 5261,
      "Ġschwierigere": 5262,
      "End": 5263,
      "Ġechter": 5264,
      "ĠGerÃ¤t": 5265,
      "Trainings": 5266,
      "Ġversuchst": 5267,
      "ĠSchwÃ¤chen": 5268,
      "ĠBauen": 5269,
      "ĠBestimmt": 5270,
      "ĠWortes": 5271,
      "ĠWortlisten": 5272,
      "Ġsorgst": 5273,
      "Ġverlieren": 5274,
      "ĠOptimieren": 5275,
      "ĠOptimierung": 5276,
      "Ġtiefer": 5277,
      "Ġerster": 5278,
      "Ġgegeneinander": 5279,
      "Ġgegenseit": 5280,
      "ĠgewÃ¶hn": 5281,
      "Ġgewichtet": 5282,
      "Ġherausfinden": 5283,
      "ogie": 5284,
      "ordnung": 5285,
      "Ġwissenschaft": 5286,
      "ĠmÃ¶glichen": 5287,
      "Ġverbundener": 5288,
      "Aufgaben": 5289,
      "Epochen": 5290,
      "Ġeigentliche": 5291,
      "ĠTestdatensatz": 5292,
      "ĠEingabewerte": 5293,
      "ĠMachst": 5294,
      "Ġlangsamer": 5295,
      "merken": 5296,
      "Ġbewegen": 5297,
      "Ġerzeugten": 5298,
      "Systemen": 5299,
      "sÃ¤chlichen": 5300,
      "ĠSpeicherplatz": 5301,
      "KÃ¶nig": 5302,
      "ĠNachts": 5303,
      "Ġwahrscheinlichsten": 5304,
      "Ġsuchen": 5305,
      "ĠPunkten": 5306,
      "Ġabsolutes": 5307,
      "thon": 5308,
      "ĠDeshalb": 5309,
      "Ã¤higer": 5310,
      "ĠErklÃ¤rungen": 5311,
      "liste": 5312,
      "ĠDamit": 5313,
      "ĠSatzes": 5314,
      "ĠEntscheidungsb": 5315,
      "ĠEntscheidungsregel": 5316,
      "Ġdeutlich": 5317,
      "Ġweglassen": 5318,
      "Ġvergisst": 5319,
      "projekt": 5320,
      "Ġachte": 5321,
      "ĠMengen": 5322,
      "ĠzurÃ¼ckgeschickt": 5323,
      "Ġbeginne": 5324,
      "ĠGedanken": 5325,
      "Ġhintereinander": 5326,
      "meckt": 5327,
      "fordert": 5328,
      "Ġfairer": 5329,
      "ĠSchluss": 5330,
      "Ġsinnvolle": 5331,
      "Ġgetrennt": 5332,
      "ĠBeschreib": 5333,
      "artete": 5334,
      "ĠSchwankungen": 5335,
      "ĠhÃ¤ufigsten": 5336,
      "ĠhÃ¤ufigste": 5337,
      "Ġaktual": 5338,
      "Ġknapp": 5339,
      "Ġkniff": 5340,
      "Ġallgemeiner": 5341,
      "Ã¤umen": 5342,
      "Ġreinkommen": 5343,
      "ĠRegressions": 5344,
      "Gradientenabst": 5345,
      "uld": 5346,
      "ulierung": 5347,
      "iegeln": 5348,
      "Ġsolchen": 5349,
      "ĠfÃ¼hlt": 5350,
      "ĠfÃ¼hlen": 5351,
      "ĠGrafikkarte": 5352,
      "ĠNotizbuch": 5353,
      "ĠzuverlÃ¤ssiger": 5354,
      "Ġfehlerfrei": 5355,
      "ĠAlle": 5356,
      "ĠNormale": 5357,
      "Ġtypischer": 5358,
      "Ġnerven": 5359,
      "Ġnervig": 5360,
      "Ġoffensichtlich": 5361,
      "ĠtatsÃ¤chlichen": 5362,
      "explodierenden": 5363,
      "Denknetzen": 5364,
      "ĠÃ¼blich": 5365,
      "Ġverwirrend": 5366,
      "ĠSicherungs": 5367,
      "schlÃ¤": 5368,
      "Ġvorbereite": 5369,
      "ĠStufen": 5370,
      "volutionÃ¤re": 5371,
      "Katze": 5372,
      "obacht": 5373,
      "Ġeng": 5374,
      "Ġmathematischen": 5375,
      "rauben": 5376,
      "ĠÃľbersetzung": 5377,
      "Ġgrundlegende": 5378,
      "Ġgleiten": 5379,
      "Ġgerecht": 5380,
      "ĠMittelweg": 5381,
      "Ġfehlerhaft": 5382,
      "Ġerledigt": 5383,
      "AuÃŁer": 5384,
      "Ġbasierend": 5385,
      "neuronale": 5386,
      "Eingabewert": 5387,
      "ĠpersÃ¶nlichen": 5388,
      "Ġeinsetzt": 5389,
      "Ġkomprim": 5390,
      "Ġerweitern": 5391,
      "ĠfrÃ¼hzeitig": 5392,
      "Transferlernen": 5393,
      "Hilft": 5394,
      "Ġeffektiv": 5395,
      "ĠTiefenlern": 5396,
      "ĠResidual": 5397,
      "ĠprÃ¤zise": 5398,
      "Ġverbesserte": 5399,
      "ĠverlÃ¤sslich": 5400,
      "Plots": 5401,
      "Ġrohen": 5402,
      "ĠFotos": 5403,
      "Ġgenutzte": 5404,
      "ĠHeraus": 5405,
      "ĠHintergrund": 5406,
      "mensionale": 5407,
      "Ġbeschleunigt": 5408,
      "ĠempfÃ¤ngt": 5409,
      "Generatives": 5410,
      "FÃ¼hlst": 5411,
      "Optimierer": 5412,
      "beste": 5413,
      "eimnis": 5414,
      "Ġbetrach": 5415,
      "ĠnÃ¤her": 5416,
      "ĠSuche": 5417,
      "Ġformul": 5418,
      "ĠBlack": 5419,
      "ĠBesseres": 5420,
      "Ġspezifisch": 5421,
      "Verstehe": 5422,
      "ĠGehirnzelle": 5423,
      "Ġaktuellen": 5424,
      "tiketten": 5425,
      "ĠÃ¶fter": 5426,
      "Ġrobuster": 5427,
      "Ġzentra": 5428,
      "Ġunfair": 5429,
      "orrektur": 5430,
      "ĠPython": 5431,
      "ĠBalance": 5432,
      "Ġbezieht": 5433,
      "Ġmittl": 5434,
      "Ġdahinter": 5435,
      "Ġerschaffen": 5436,
      "ĠÃľbung": 5437,
      "ĠAusgangs": 5438,
      "bausteine": 5439,
      "ĠSoftwareentwickler": 5440,
      "Ġvorhergesagten": 5441,
      "Ġvertrauen": 5442,
      "KÃ¼nstliche": 5443,
      "Magst": 5444,
      "MSprop": 5445,
      "Teilweise": 5446,
      "Video": 5447,
      "Ġdaneben": 5448,
      "eindimensionale": 5449,
      "Ġignor": 5450,
      "Ġmoral": 5451,
      "Ġzuzuordnen": 5452,
      "ĠTaschen": 5453,
      "ĠFilm": 5454,
      "ĠFundament": 5455,
      "ĠFeedback": 5456,
      "Ġantwortet": 5457,
      "Ġversteckte": 5458,
      "Ġriskant": 5459,
      "ĠStabilitÃ¤t": 5460,
      "Ġentdecken": 5461,
      "ĠHauptvorteil": 5462,
      "ĠAusgabeschicht": 5463,
      "Ġgegenseitig": 5464,
      "ĠBeschreibung": 5465,
      "Ġkniffl": 5466,
      "Gradientenabstieg": 5467,
      "\").": 5468,
      ")?": 5469,
      ".'[": 5470,
      "Aber": 5471,
      "Abst": 5472,
      "Auto": 5473,
      "DL": 5474,
      "Diskriminator": 5475,
      "Ehr": 5476,
      "Exp": 5477,
      "Fan": 5478,
      "FÃ¶": 5479,
      "Full": 5480,
      "Glau": 5481,
      "GAN": 5482,
      "Gib": 5483,
      "Gleichgewicht": 5484,
      "Grupp": 5485,
      "Kaum": 5486,
      "KÃ¤stchen": 5487,
      "LoFi": 5488,
      "Mit": 5489,
      "Nu": 5490,
      "Nacht": 5491,
      "One": 5492,
      "RÃ¼ck": 5493,
      "RAG": 5494,
      "Sig": 5495,
      "Te": 5496,
      "Ter": 5497,
      "Vektoren": 5498,
      "Validierungs": 5499,
      "Weg": 5500,
      "Welt": 5501,
      "Werte": 5502,
      "Zwischen": 5503,
      "age": 5504,
      "ammer": 5505,
      "beg": 5506,
      "bek": 5507,
      "baut": 5508,
      "bys": 5509,
      "cl": 5510,
      "cen": 5511,
      "cted": 5512,
      "dessen": 5513,
      "diagramm": 5514,
      "equ": 5515,
      "fall": 5516,
      "fÃ¤higkeit": 5517,
      "faktoren": 5518,
      "geh": 5519,
      "get": 5520,
      "groÃŁ": 5521,
      "grÃ¼n": 5522,
      "hand": 5523,
      "ider": 5524,
      "iration": 5525,
      "ja": 5526,
      "klar": 5527,
      "kennt": 5528,
      "kurven": 5529,
      "les": 5530,
      "lungs": 5531,
      "lÃ¤sst": 5532,
      "linien": 5533,
      "lÃ¤ufe": 5534,
      "liziert": 5535,
      "mlich": 5536,
      "mehr": 5537,
      "muster": 5538,
      "nÃ¤": 5539,
      "ness": 5540,
      "our": 5541,
      "ogen": 5542,
      "ower": 5543,
      "punkte": 5544,
      "rum": 5545,
      "rger": 5546,
      "runde": 5547,
      "rierend": 5548,
      "ss": 5549,
      "seh": 5550,
      "siv": 5551,
      "tlich": 5552,
      "tten": 5553,
      "tscheider": 5554,
      "ub": 5555,
      "uell": 5556,
      "vert": 5557,
      "welt": 5558,
      "werten": 5559,
      "zerte": 5560,
      "Ġern": 5561,
      "Ġor": 5562,
      "ĠÃ¤r": 5563,
      "ĠÃ¤u": 5564,
      "Ġordnen": 5565,
      "enkt": 5566,
      "enÃ¤hn": 5567,
      "inz": 5568,
      "Ġdicht": 5569,
      "ĠdÃ¼r": 5570,
      "Ġdrin": 5571,
      "ĠdrÃ¼ckt": 5572,
      "Ġdanke": 5573,
      "Ġdigital": 5574,
      "staben": 5575,
      "struktur": 5576,
      "eingenommen": 5577,
      "ash": 5578,
      "une": 5579,
      "Ġsystem": 5580,
      "Ġsetze": 5581,
      "Ġsitze": 5582,
      "Ġwod": 5583,
      "Ġwider": 5584,
      "Ġwinz": 5585,
      "Ġeinig": 5586,
      "Ġeingehen": 5587,
      "Ġeingibt": 5588,
      "Ġeinzustellen": 5589,
      "Ġmisch": 5590,
      "Ġmische": 5591,
      "Ġmult": 5592,
      "Ġmesse": 5593,
      "rag": 5594,
      "Ġgol": 5595,
      "Ġgering": 5596,
      "Ġgrupp": 5597,
      "Ġbr": 5598,
      "Ġback": 5599,
      "atÃ¼r": 5600,
      "atrix": 5601,
      "Ġzeich": 5602,
      "ĠzÃ¤hlt": 5603,
      "utos": 5604,
      "Ġneben": 5605,
      "ĠnatÃ¼r": 5606,
      "ehm": 5607,
      "Ġzueinander": 5608,
      "ĠDiagramm": 5609,
      "ĠDenken": 5610,
      "Ã¼he": 5611,
      "unger": 5612,
      "igst": 5613,
      "ĠSeit": 5614,
      "ĠSol": 5615,
      "ĠSele": 5616,
      "Ġunvor": 5617,
      "Ġunemp": 5618,
      "ĠunzÃ¤hl": 5619,
      "Ġunklar": 5620,
      "ĠkÃ¼": 5621,
      "ory": 5622,
      "ĠMem": 5623,
      "ĠMehr": 5624,
      "ĠMÃ¼he": 5625,
      "Ġfein": 5626,
      "ĠfÃ¤ngst": 5627,
      "ĠLicht": 5628,
      "ĠLehr": 5629,
      "ĠLand": 5630,
      "ĠLeut": 5631,
      "Ġle": 5632,
      "Ġlag": 5633,
      "Ġlinear": 5634,
      "Ġlohnt": 5635,
      "also": 5636,
      "alogie": 5637,
      "Ġhabt": 5638,
      "irnen": 5639,
      "indern": 5640,
      "ĠPfl": 5641,
      "ĠPapier": 5642,
      "ĠAch": 5643,
      "ĠAkt": 5644,
      "ĠAutos": 5645,
      "eitungen": 5646,
      "schw": 5647,
      "schutz": 5648,
      "schalt": 5649,
      "schaut": 5650,
      "schlau": 5651,
      "schritten": 5652,
      "ĠBack": 5653,
      "Ġverd": 5654,
      "Ġverur": 5655,
      "Ġverantwort": 5656,
      "Ġverwandelt": 5657,
      "Ġverantwortungsvoll": 5658,
      "Ġverwandeln": 5659,
      "ĠWeil": 5660,
      "ĠWenig": 5661,
      "ĠWesent": 5662,
      "auschen": 5663,
      "Ã¶gen": 5664,
      "ĠDatenvor": 5665,
      "ĠDatenverarbeitung": 5666,
      "ĠDatenschutz": 5667,
      "ĠKom": 5668,
      "ĠKunst": 5669,
      "ĠKreis": 5670,
      "ĠTanh": 5671,
      "ĠTeller": 5672,
      "abrik": 5673,
      "ĠFair": 5674,
      "ĠFinden": 5675,
      "ĠFabrik": 5676,
      "dere": 5677,
      "derhol": 5678,
      "deriertes": 5679,
      "eus": 5680,
      "Ġscheint": 5681,
      "Ġschmeckt": 5682,
      "ionen": 5683,
      "Ġbeendet": 5684,
      "bereiten": 5685,
      "ĠGing": 5686,
      "ĠGanz": 5687,
      "Ġinten": 5688,
      "Ġinvest": 5689,
      "ĠRechnungen": 5690,
      "ĠRechner": 5691,
      "ĠRMSprop": 5692,
      "Ġans": 5693,
      "Ġansehen": 5694,
      "Ġanhand": 5695,
      "Ġanschaut": 5696,
      "Ġsobald": 5697,
      "ile": 5698,
      "usatz": 5699,
      "ĠIhr": 5700,
      "ĠZusatz": 5701,
      "Ġumwandeln": 5702,
      "Ġdagegen": 5703,
      "echte": 5704,
      "Ġgener": 5705,
      "Ġgenial": 5706,
      "Ġaufz": 5707,
      "Ġaufge": 5708,
      "Ġaufbauen": 5709,
      "Ġtritt": 5710,
      "Ġtrenn": 5711,
      "Ġtranspar": 5712,
      "ĠSchn": 5713,
      "ĠSchau": 5714,
      "ĠSchreib": 5715,
      "ĠSchrauben": 5716,
      "ĠLernrunden": 5717,
      "Ġausgel": 5718,
      "Ġausschalten": 5719,
      "Ġstehen": 5720,
      "Ġstellen": 5721,
      "ĠstÃ¶ren": 5722,
      "Wiederkehr": 5723,
      "ĠerhÃ¤lt": 5724,
      "Ġerfinden": 5725,
      "Ġerzielt": 5726,
      "ungsstark": 5727,
      "Ġgenaues": 5728,
      "Ġvoran": 5729,
      "Ġvorzu": 5730,
      "Ġvorank": 5731,
      "Ġvorgibt": 5732,
      "Ġvorbei": 5733,
      "Ġrei": 5734,
      "ĠErweiter": 5735,
      "ĠEreig": 5736,
      "ĠInsp": 5737,
      "ĠIntern": 5738,
      "robieren": 5739,
      "Ã¼bersetzung": 5740,
      "ationen": 5741,
      "ĠStunden": 5742,
      "ĠStelle": 5743,
      "ĠStellen": 5744,
      "ĠStrom": 5745,
      "ĠStimmung": 5746,
      "ĠStreuung": 5747,
      "Ġlernenden": 5748,
      "Einbett": 5749,
      "immst": 5750,
      "ĠAnrei": 5751,
      "ĠAnalyse": 5752,
      "ĠAnleitung": 5753,
      "ĠAnordnung": 5754,
      "ĠAnalogie": 5755,
      "ĠEinheit": 5756,
      "ĠEinschalt": 5757,
      "ĠSiehst": 5758,
      "ĠÃ¼berwacht": 5759,
      "ĠÃ¼berprÃ¼": 5760,
      "ĠÃ¼berwach": 5761,
      "ĠÃ¼berflÃ¼s": 5762,
      "Ġdeins": 5763,
      "herseh": 5764,
      "uprobieren": 5765,
      "ĠHo": 5766,
      "ĠHunden": 5767,
      "ĠHob": 5768,
      "ĠHammer": 5769,
      "ĠHunger": 5770,
      "vergiert": 5771,
      "ĠVergangen": 5772,
      "Ġgegeben": 5773,
      "Ġgeziel": 5774,
      "Ġschnellsten": 5775,
      "Ġschnellere": 5776,
      "ustrierend": 5777,
      "rauchbar": 5778,
      "Ġdurchgeht": 5779,
      "Und": 5780,
      "tweder": 5781,
      "gebnisse": 5782,
      "Ġschwere": 5783,
      "ĠOrig": 5784,
      "Ġenthalten": 5785,
      "ĠWasser": 5786,
      "Ġjeweil": 5787,
      "ĠUnger": 5788,
      "Ġnachmachen": 5789,
      "telligent": 5790,
      "elohnt": 5791,
      "Lernens": 5792,
      "Ġanderer": 5793,
      "Ġklarsten": 5794,
      "ikel": 5795,
      "ĠFalle": 5796,
      "reund": 5797,
      "ewÃ¶hn": 5798,
      "Ġverborgen": 5799,
      "Ġtrainierten": 5800,
      "Ġabschaltet": 5801,
      "ĠabhÃ¤ngt": 5802,
      "Ġkompletter": 5803,
      "ĠTrainingszeit": 5804,
      "ĠTrainingsschritt": 5805,
      "ĠTrainingsdurch": 5806,
      "Ġwirksam": 5807,
      "ĠzusammengefÃ¼gt": 5808,
      "Ġgelerntes": 5809,
      "ĠTextteile": 5810,
      "ĠTextgener": 5811,
      "Schritt": 5812,
      "Schieflage": 5813,
      "ĠWiederkehr": 5814,
      "uppen": 5815,
      "ringe": 5816,
      "ĠRechenbausteine": 5817,
      "ĠHauptgrÃ¼n": 5818,
      "Ã¤hlten": 5819,
      "Ġschnelleres": 5820,
      "Ġunsichtbar": 5821,
      "folgt": 5822,
      "Ġbekannte": 5823,
      "Ġwozu": 5824,
      "ĠProjekte": 5825,
      "ĠÃľberlernen": 5826,
      "ĠÃľbersetzen": 5827,
      "ĠÃľbertraining": 5828,
      "heben": 5829,
      "stÃ¤ndigen": 5830,
      "Ġgemisch": 5831,
      "ĠbenÃ¶t": 5832,
      "nitten": 5833,
      "Ġschwerer": 5834,
      "fittet": 5835,
      "bare": 5836,
      "ĠÃ¤hneln": 5837,
      "ĠfÃ¼t": 5838,
      "Ã¼cken": 5839,
      "Ã¼cklich": 5840,
      "ĠAbsprach": 5841,
      "Ġspezial": 5842,
      "gericht": 5843,
      "Ġstabiles": 5844,
      "ĠKonzerte": 5845,
      "Ġkleinerer": 5846,
      "Ġkleineres": 5847,
      "Ġspezieller": 5848,
      "ostet": 5849,
      "Ġhervor": 5850,
      "Ġsicherstellen": 5851,
      "ĠGrundidee": 5852,
      "Ġunterweg": 5853,
      "Ġkurzfrist": 5854,
      "Spiel": 5855,
      "ĠnÃ¤chstes": 5856,
      "Antwort": 5857,
      "ĠBevor": 5858,
      "Ġeinziges": 5859,
      "Ġlangsamen": 5860,
      "Ġreal": 5861,
      "Entscheid": 5862,
      "gruppen": 5863,
      "Ġgehabt": 5864,
      "Ġbevorzu": 5865,
      "ĠÃľbungsbeispiele": 5866,
      "ipliziert": 5867,
      "Ġzurecht": 5868,
      "Ġangeordnet": 5869,
      "Ġentwickelst": 5870,
      "Ġkompliziertes": 5871,
      "ĠOptimierungs": 5872,
      "Ġkomplexere": 5873,
      "Ġerstes": 5874,
      "ĠgegenÃ¼ber": 5875,
      "ĠgewÃ¤hlt": 5876,
      "Ġherausf": 5877,
      "ogel": 5878,
      "ĠKaffe": 5879,
      "ĠmÃ¶gliche": 5880,
      "Konfusionsmatrix": 5881,
      "Ã¶sung": 5882,
      "Aufgabe": 5883,
      "Probleme": 5884,
      "istanz": 5885,
      "Ġeigentlichen": 5886,
      "gemein": 5887,
      "material": 5888,
      "ĠmÃ¼sste": 5889,
      "ĠmÃ¼sstest": 5890,
      "Ġ10": 5891,
      "ĠAutofahren": 5892,
      "Ġhoher": 5893,
      "Ġhoffe": 5894,
      "ĠÃĦrger": 5895,
      "Ġbewegt": 5896,
      "Ġerzeugst": 5897,
      "ifik": 5898,
      "iebe": 5899,
      "Ġunbrauchbar": 5900,
      "ĠFunktionsweise": 5901,
      "ĠgefÃ¤lscht": 5902,
      "ĠAutoencod": 5903,
      "findlicher": 5904,
      "Ġflach": 5905,
      "ecker": 5906,
      "ĠungewÃ¶hn": 5907,
      "fassungs": 5908,
      "ĠNachteil": 5909,
      "ĠMerkmalskarte": 5910,
      "Ġvoller": 5911,
      "ĠkÃ¼nstliches": 5912,
      "ĠEntwickeln": 5913,
      "Ġsuche": 5914,
      "ĠAnfÃ¤ngerfehler": 5915,
      "Denkst": 5916,
      "Denknetze": 5917,
      "ĠSpielen": 5918,
      "ĠErklÃ¤ren": 5919,
      "ĠGrÃ¶ÃŁen": 5920,
      "Ġexternen": 5921,
      "ĠhÃ¤ufiger": 5922,
      "ĠGesichter": 5923,
      "Ġdeutliche": 5924,
      "Ġvergangen": 5925,
      "ĠStartwert": 5926,
      "konvergiert": 5927,
      "Ġbehoben": 5928,
      "Ġbeginnen": 5929,
      "ĠRichtungen": 5930,
      "Ġmenschlichen": 5931,
      "Ġmenschliches": 5932,
      "ĠmenschenÃ¤hn": 5933,
      "ĠBeginne": 5934,
      "ĠForschung": 5935,
      "ĠGraph": 5936,
      "ĠRobo": 5937,
      "ĠGeschichten": 5938,
      "ĠGeschichte": 5939,
      "ĠFehlerfunktionen": 5940,
      "arteten": 5941,
      "einfache": 5942,
      "Ġvergleichbar": 5943,
      "ĠLieblingsgericht": 5944,
      "hohe": 5945,
      "neue": 5946,
      "Ġbelieb": 5947,
      "ĠDurchgang": 5948,
      "Ġsofortige": 5949,
      "Ġbenutze": 5950,
      "ĠConnected": 5951,
      "ĠzusÃ¤tzlich": 5952,
      "Ġpraktische": 5953,
      "ĠfrÃ¼heren": 5954,
      "ĠNervenzelle": 5955,
      "ĠHandlung": 5956,
      "ĠHandys": 5957,
      "Ġentfernen": 5958,
      "Ġentfernte": 5959,
      "ĠBaumdiagramm": 5960,
      "ĠZuordnung": 5961,
      "ĠZukunfts": 5962,
      "Ġgefundenen": 5963,
      "Ġtolles": 5964,
      "Kontextvektor": 5965,
      "Ġauftritt": 5966,
      "Ġaufteilen": 5967,
      "Ġriesiger": 5968,
      "Ġriesiges": 5969,
      "ĠKlassiker": 5970,
      "Wird": 5971,
      "ĠAblenk": 5972,
      "Ġverwirren": 5973,
      "ĠShort": 5974,
      "ĠAlgorithmus": 5975,
      "ĠBeziehung": 5976,
      "ĠWozu": 5977,
      "ĠDatenpaket": 5978,
      "Ġgemeinsamen": 5979,
      "ĠhÃ¶herer": 5980,
      "dumm": 5981,
      "rauen": 5982,
      "ĠBuchstaben": 5983,
      "Ġbegrenzen": 5984,
      "Ġsparst": 5985,
      "ĠArbeitsweise": 5986,
      "ĠArbeitsablauf": 5987,
      "Bedeut": 5988,
      "Halluzinationen": 5989,
      "ĠglÃ¼cklich": 5990,
      "Ġkombin": 5991,
      "ĠVerstÃ¤rkendem": 5992,
      "Ġverbringst": 5993,
      "Ġwiederkehrenden": 5994,
      "Strate": 5995,
      "Ġanalysiert": 5996,
      "echslungs": 5997,
      "hasen": 5998,
      "maÃŁ": 5999,
      "ĠermÃ¶glichen": 6000,
      "ĠÃ¼berprÃ¼fst": 6001,
      "Ġungleichen": 6002,
      "neuronalen": 6003,
      "Denknetzes": 6004,
      "ĠRisiko": 6005,
      "bination": 6006,
      "ĠunnÃ¶tig": 6007,
      "Ġhandh": 6008,
      "ĠAbstimmung": 6009,
      "Ġtrinke": 6010,
      "Ġauseinanderhalten": 6011,
      "Ġstartest": 6012,
      "ĠVersuche": 6013,
      "Ġdurchschnittliche": 6014,
      "ĠgleichmÃ¤ÃŁiger": 6015,
      "ĠZufÃ¤lligkeiten": 6016,
      "ĠVorhersagemodellen": 6017,
      "Hilfe": 6018,
      "Nenne": 6019,
      "Voreingenommen": 6020,
      "ĠLage": 6021,
      "ĠResNets": 6022,
      "ĠerzÃ¤hlt": 6023,
      "ĠerzÃ¤hlen": 6024,
      "ĠEinfache": 6025,
      "ĠEinfachheit": 6026,
      "ĠFaltungsnetzwerken": 6027,
      "Ġvorbereiteten": 6028,
      "Brauchst": 6029,
      "Darstellungen": 6030,
      "PrÃ¼fer": 6031,
      "starke": 6032,
      "Ġzerlegen": 6033,
      "Ġkochen": 6034,
      "Ġfasziniert": 6035,
      "Ġfaszinierend": 6036,
      "ĠPanade": 6037,
      "ĠFÃ¤lscher": 6038,
      "ĠFÃ¤lschungen": 6039,
      "ĠGute": 6040,
      "Ġvielseitiger": 6041,
      "Ġgezeigt": 6042,
      "ĠKontrolle": 6043,
      "Ġbisherigen": 6044,
      "Sprachmodellen": 6045,
      "Beschreib": 6046,
      "Machine": 6047,
      "ĠDokument": 6048,
      "ĠExperte": 6049,
      "ĠKÃ¶nnen": 6050,
      "Ġschreibe": 6051,
      "ĠVorgehensweise": 6052,
      "ĠTextmenge": 6053,
      "Ġkompliziertere": 6054,
      "Testdaten": 6055,
      "Ġmaximale": 6056,
      "Ġbremsen": 6057,
      "ĠSollte": 6058,
      "Ġfolgt": 6059,
      "Ġleistungsstark": 6060,
      "ĠKompliziert": 6061,
      "Ġumgewandelt": 6062,
      "ĠOberbeg": 6063,
      "Ġselbstlernende": 6064,
      "ĠWiederher": 6065,
      "Ġlangfristige": 6066,
      "Ġherauszufinden": 6067,
      "Ġdeutscher": 6068,
      "ĠendgÃ¼ltige": 6069,
      "ĠWirklichkeit": 6070,
      "Ġreduzieren": 6071,
      "Ġgesprochene": 6072,
      "Hauptkomponentenanalyse": 6073,
      "bildern": 6074,
      "besonders": 6075,
      "overfittet": 6076,
      "rÃ¤nkt": 6077,
      "Ġeuch": 6078,
      "Ġwandeln": 6079,
      "Ġminimieren": 6080,
      "Ġbilden": 6081,
      "Ġaddiert": 6082,
      "ĠSammlung": 6083,
      "Ġfrustrierend": 6084,
      "ĠhartnÃ¤": 6085,
      "ĠBetrieb": 6086,
      "ĠGeheimnis": 6087,
      "ĠNavi": 6088,
      "Ġkluge": 6089,
      "Ġauszuprobieren": 6090,
      "ĠEinstellmÃ¶glichkeiten": 6091,
      "ĠhinzufÃ¼": 6092,
      "Endtest": 6093,
      "ĠBestimmtes": 6094,
      "Ġaktualisiert": 6095,
      "ĠSicherungskopien": 6096,
      "Ġbetrachtet": 6097,
      "Ġformulieren": 6098,
      "Ġknifflig": 6099,
      "Ehrlich": 6100,
      "FÃ¶deriertes": 6101,
      "Fully": 6102,
      "Glaubst": 6103,
      "Gruppen": 6104,
      "Nucl": 6105,
      "Team": 6106,
      "Term": 6107,
      "Zwischenbilder": 6108,
      "ourcen": 6109,
      "ttention": 6110,
      "Ġerneuert": 6111,
      "ĠÃ¤uÃŁ": 6112,
      "ĠdÃ¼rfen": 6113,
      "Ġsystematisch": 6114,
      "Ġwodurch": 6115,
      "Ġmultipliziert": 6116,
      "ĠSeitdem": 6117,
      "ĠSelection": 6118,
      "Ġunvorherseh": 6119,
      "Ġunempfindlicher": 6120,
      "ĠunzÃ¤hlige": 6121,
      "ĠMemory": 6122,
      "ĠLeuten": 6123,
      "ĠWeniger": 6124,
      "ĠDatenvorbereitung": 6125,
      "ĠKombination": 6126,
      "ĠFairness": 6127,
      "Ġintensiv": 6128,
      "Ġtrennen": 6129,
      "Ġtransparent": 6130,
      "ĠErweiterungen": 6131,
      "ĠEreignis": 6132,
      "ĠInspiration": 6133,
      "ĠAnreize": 6134,
      "ĠHobbys": 6135,
      "ĠOriginal": 6136,
      "ĠTextgenerierung": 6137,
      "ĠHauptgrÃ¼nde": 6138,
      "Ġunsichtbare": 6139,
      "Ġunterwegs": 6140,
      "ĠAutoencodern": 6141,
      "ĠRoboter": 6142,
      "Ġkombiniert": 6143,
      "Voreingenommenheit": 6144,
      "ĠOberbegriff": 6145,
      "ĠhartnÃ¤ck": 6146,
      "Nucleus": 6147,
      "\")": 6148,
      "')?[": 6149,
      ")'": 6150,
      "?'": 6151,
      "Aktion": 6152,
      "Ben": 6153,
      "Bau": 6154,
      "Cl": 6155,
      "Callbacks": 6156,
      "De": 6157,
      "Den": 6158,
      "Ding": 6159,
      "Deine": 6160,
      "ER": 6161,
      "Eher": 6162,
      "Embedding": 6163,
      "EvolutionÃ¤re": 6164,
      "Etiketten": 6165,
      "Fal": 6166,
      "FÃ¤llt": 6167,
      "Gen": 6168,
      "Geh": 6169,
      "Gab": 6170,
      "Geht": 6171,
      "Grenz": 6172,
      "Hund": 6173,
      "HauptsÃ¤chlich": 6174,
      "Jedes": 6175,
      "Kl": 6176,
      "Kern": 6177,
      "Karte": 6178,
      "Knoten": 6179,
      "Klass": 6180,
      "Lohnt": 6181,
      "Muster": 6182,
      "Mensch": 6183,
      "MAE": 6184,
      "Metrik": 6185,
      "Maximalwert": 6186,
      "Mache": 6187,
      "Nutz": 6188,
      "Pr": 6189,
      "Prob": 6190,
      "Parameter": 6191,
      "Puh": 6192,
      "Rand": 6193,
      "Rechen": 6194,
      "Sc": 6195,
      "Sein": 6196,
      "Seine": 6197,
      "Sort": 6198,
      "Samm": 6199,
      "SGD": 6200,
      "Sequ": 6201,
      "Them": 6202,
      "Teile": 6203,
      "Trick": 6204,
      "Trink": 6205,
      "Wer": 6206,
      "War": 6207,
      "WÃ¶rter": 6208,
      "aden": 6209,
      "agen": 6210,
      "aÃŁ": 6211,
      "aill": 6212,
      "ackt": 6213,
      "bet": 6214,
      "bungen": 6215,
      "besser": 6216,
      "bew": 6217,
      "besch": 6218,
      "bÃ¼cher": 6219,
      "cter": 6220,
      "dr": 6221,
      "fig": 6222,
      "fit": 6223,
      "fert": 6224,
      "frage": 6225,
      "fangen": 6226,
      "fpunkt": 6227,
      "feld": 6228,
      "fÃ¤higer": 6229,
      "glich": 6230,
      "gbar": 6231,
      "ganis": 6232,
      "hÃ¶rt": 6233,
      "halluzin": 6234,
      "imension": 6235,
      "ke": 6236,
      "kod": 6237,
      "kapazitÃ¤t": 6238,
      "lin": 6239,
      "letz": 6240,
      "leitungen": 6241,
      "liebe": 6242,
      "mer": 6243,
      "messer": 6244,
      "mack": 6245,
      "mechanismus": 6246,
      "mittel": 6247,
      "model": 6248,
      "osten": 6249,
      "ock": 6250,
      "pr": 6251,
      "pfel": 6252,
      "periment": 6253,
      "qualitÃ¤t": 6254,
      "rro": 6255,
      "richt": 6256,
      "richtig": 6257,
      "rasch": 6258,
      "rre": 6259,
      "rige": 6260,
      "rett": 6261,
      "reitet": 6262,
      "sort": 6263,
      "sige": 6264,
      "sicher": 6265,
      "sfÃ¤higer": 6266,
      "tr": 6267,
      "tie": 6268,
      "tes": 6269,
      "tote": 6270,
      "wege": 6271,
      "wechslungs": 6272,
      "zie": 6273,
      "zei": 6274,
      "zum": 6275,
      "zigen": 6276,
      "zusammen": 6277,
      "zwischen": 6278,
      "Ġch": 6279,
      "Ġrom": 6280,
      "Ġeben": 6281,
      "ender": 6282,
      "encoder": 6283,
      "erer": 6284,
      "erinnern": 6285,
      "ergie": 6286,
      "ergebnisse": 6287,
      "intelligent": 6288,
      "Ġdet": 6289,
      "ĠdÃ¼n": 6290,
      "Ġdefin": 6291,
      "Ġdrau": 6292,
      "Ġdistanz": 6293,
      "steher": 6294,
      "stieg": 6295,
      "stÃ¤nde": 6296,
      "ieden": 6297,
      "ieÃŁ": 6298,
      "iehst": 6299,
      "einstellung": 6300,
      "unsch": 6301,
      "unction": 6302,
      "Ġsendet": 6303,
      "Ġsenken": 6304,
      "Ġweder": 6305,
      "Ġwechseln": 6306,
      "eiver": 6307,
      "ante": 6308,
      "anpasst": 6309,
      "antworten": 6310,
      "Ġeindeut": 6311,
      "Ġeinige": 6312,
      "Ġeingebaut": 6313,
      "Ġeingegeben": 6314,
      "elte": 6315,
      "elmÃ¤ÃŁ": 6316,
      "Ġmot": 6317,
      "ĠmÃ¶gen": 6318,
      "racter": 6319,
      "Ġgil": 6320,
      "Ġgrob": 6321,
      "Ġgelohnt": 6322,
      "Ġbaut": 6323,
      "Ġbahn": 6324,
      "ernten": 6325,
      "atur": 6326,
      "Ġzeit": 6327,
      "Ġarro": 6328,
      "mmern": 6329,
      "Ġnir": 6330,
      "Ġzufr": 6331,
      "ĠDarum": 6332,
      "ĠDien": 6333,
      "ĠDial": 6334,
      "ĠDefin": 6335,
      "Ã¼bt": 6336,
      "Ã¼hr": 6337,
      "Ã¼ger": 6338,
      "ellt": 6339,
      "onstruktionsfehler": 6340,
      "ĠSte": 6341,
      "ĠSeine": 6342,
      "ĠunmÃ¶g": 6343,
      "ichts": 6344,
      "etisch": 6345,
      "etri": 6346,
      "Ã¤gen": 6347,
      "Ġkrie": 6348,
      "Ġkostet": 6349,
      "orte": 6350,
      "arb": 6351,
      "ĠMehl": 6352,
      "ĠMÃ¤n": 6353,
      "ĠMill": 6354,
      "ĠMorgen": 6355,
      "ĠMean": 6356,
      "Ġfit": 6357,
      "Ġfort": 6358,
      "Ġfarb": 6359,
      "Ġesse": 6360,
      "itekt": 6361,
      "ierern": 6362,
      "ierter": 6363,
      "ĠLab": 6364,
      "ĠLang": 6365,
      "ĠLeist": 6366,
      "ĠLÃ¤nge": 6367,
      "Ġleiten": 6368,
      "Ġlegen": 6369,
      "Ġleidet": 6370,
      "Ġlecker": 6371,
      "alitÃ¤t": 6372,
      "Ġhol": 6373,
      "irkt": 6374,
      "iriert": 6375,
      "irekt": 6376,
      "ĠEher": 6377,
      "ĠEthik": 6378,
      "ĠPart": 6379,
      "ĠPaket": 6380,
      "ĠPoten": 6381,
      "ĠPrivat": 6382,
      "ĠPhase": 6383,
      "ĠPause": 6384,
      "ĠPhasen": 6385,
      "ĠAhn": 6386,
      "ĠAgenten": 6387,
      "ĠAttention": 6388,
      "sche": 6389,
      "schuss": 6390,
      "schlage": 6391,
      "ĠauÃŁen": 6392,
      "ĠBed": 6393,
      "ĠBib": 6394,
      "ĠBÃ¼ch": 6395,
      "ĠBirnen": 6396,
      "ĠBER": 6397,
      "ĠBrett": 6398,
      "Ġversehen": 6399,
      "Ġverfolgen": 6400,
      "Ġvertie": 6401,
      "ĠWelch": 6402,
      "ĠWand": 6403,
      "ĠWÃ¤hl": 6404,
      "ĠWunsch": 6405,
      "aub": 6406,
      "aul": 6407,
      "auchen": 6408,
      "ielle": 6409,
      "Ã¶p": 6410,
      "ĠDatensÃ¤tze": 6411,
      "ĠDatenstÃ¼ck": 6412,
      "ĠDatenqualitÃ¤t": 6413,
      "ĠKreativ": 6414,
      "ĠKnoten": 6415,
      "ĠKosten": 6416,
      "ĠTal": 6417,
      "ĠTaten": 6418,
      "ĠTieren": 6419,
      "ĠTÃ¶n": 6420,
      "ĠTop": 6421,
      "ĠTemperatur": 6422,
      "ĠFan": 6423,
      "ĠFaktor": 6424,
      "ĠFok": 6425,
      "ĠFunction": 6426,
      "mpfe": 6427,
      "Ġschaltet": 6428,
      "llt": 6429,
      "Ġbeobacht": 6430,
      "Ġbeantworten": 6431,
      "deckt": 6432,
      "ĠProgrammstruktur": 6433,
      "dene": 6434,
      "ĠGen": 6435,
      "ĠGere": 6436,
      "ĠGÃ¼te": 6437,
      "ĠNÃ¤": 6438,
      "ĠNote": 6439,
      "ĠNash": 6440,
      "Ġinsp": 6441,
      "Ġinterpret": 6442,
      "Ġinhalt": 6443,
      "ĠRÃ¤ndern": 6444,
      "ĠRaum": 6445,
      "ĠRichtigkeit": 6446,
      "ĠRichtige": 6447,
      "ĠRauschen": 6448,
      "Ġanz": 6449,
      "Ġangen": 6450,
      "Ġanpass": 6451,
      "Ġangehen": 6452,
      "Ġanwendet": 6453,
      "Ġankommen": 6454,
      "Ġankommt": 6455,
      "urteile": 6456,
      "Ġsozusagen": 6457,
      "Ġsozial": 6458,
      "gende": 6459,
      "isse": 6460,
      "ĠModelltraining": 6461,
      "usetzen": 6462,
      "ĠImp": 6463,
      "ĠIrre": 6464,
      "ĠComputerwelt": 6465,
      "ĠZun": 6466,
      "ĠVari": 6467,
      "ĠVogel": 6468,
      "Ġumgeht": 6469,
      "Ġdazwischen": 6470,
      "eche": 6471,
      "Ã¤ren": 6472,
      "ĠklÃ¼ger": 6473,
      "passte": 6474,
      "Ġaufwend": 6475,
      "Ġaufgrund": 6476,
      "ĠaufhÃ¶rt": 6477,
      "Ġtreten": 6478,
      "Ġteilst": 6479,
      "ĠSchutz": 6480,
      "ĠLernum": 6481,
      "ĠLernkurve": 6482,
      "ĠLernfÃ¤higkeit": 6483,
      "ĠLernkurven": 6484,
      "entiel": 6485,
      "Ġausge": 6486,
      "Ġaussuch": 6487,
      "ĠausfÃ¼hrt": 6488,
      "Ġauskennt": 6489,
      "Ġsteil": 6490,
      "Ġstuf": 6491,
      "Ġstruktur": 6492,
      "Ġeinfachste": 6493,
      "ckbr": 6494,
      "Ġerkannten": 6495,
      "Wiederhol": 6496,
      "Ġerm": 6497,
      "Ġersp": 6498,
      "Ġerleich": 6499,
      "ĠerfÃ¼": 6500,
      "Ġerwar": 6501,
      "Ġerfor": 6502,
      "Ġersetzen": 6503,
      "Ġerziel": 6504,
      "Ġerholen": 6505,
      "ĠSpam": 6506,
      "ĠSpaÃŁ": 6507,
      "sagen": 6508,
      "Ġvorgegeben": 6509,
      "egner": 6510,
      "Ġreine": 6511,
      "Ġrunter": 6512,
      "ĠErst": 6513,
      "ĠIndem": 6514,
      "robust": 6515,
      "Ã¼bertrainiert": 6516,
      "Ã¼berangepasst": 6517,
      "ĠStill": 6518,
      "ĠStress": 6519,
      "ĠAngleich": 6520,
      "ĠAnteil": 6521,
      "ĠAnsÃ¤tze": 6522,
      "ĠAndere": 6523,
      "ĠAnleitungen": 6524,
      "ĠAnzei": 6525,
      "gebungen": 6526,
      "ĠSprachÃ¼bersetzung": 6527,
      "ĠEiner": 6528,
      "ĠEinstieg": 6529,
      "ĠÃ¼bert": 6530,
      "ĠÃ¼bersch": 6531,
      "ĠÃ¼berhe": 6532,
      "ĠÃ¼bersicht": 6533,
      "ĠHat": 6534,
      "ĠHier": 6535,
      "ĠHause": 6536,
      "iviert": 6537,
      "zugehen": 6538,
      "zugeben": 6539,
      "zulassen": 6540,
      "steckt": 6541,
      "versch": 6542,
      "vergessen": 6543,
      "ĠVerschie": 6544,
      "ĠVerarbeiten": 6545,
      "Modellkarten": 6546,
      "datenb": 6547,
      "datensatz": 6548,
      "Ġgefordert": 6549,
      "Ġschnellen": 6550,
      "ĠerklÃ¤rbar": 6551,
      "schieden": 6552,
      "Ġkleinsten": 6553,
      "Ġspringen": 6554,
      "Ġspiegeln": 6555,
      "rchitekt": 6556,
      "Ġdurchschau": 6557,
      "UnÃ¼berwachtes": 6558,
      "ĠInformations": 6559,
      "Ã¶rte": 6560,
      "Ġsollst": 6561,
      "Ġsollten": 6562,
      "ĠBeispieldaten": 6563,
      "ĠEntweder": 6564,
      "Ġschwach": 6565,
      "ĠschwÃ¤ch": 6566,
      "scheidest": 6567,
      "Ġentgegen": 6568,
      "Ġentschieden": 6569,
      "Ġentscheidest": 6570,
      "ĠVorstellung": 6571,
      "ĠVorwissen": 6572,
      "ĠVorliebe": 6573,
      "reibe": 6574,
      "Ã¤tigen": 6575,
      "ĠUnsicher": 6576,
      "Ġnachzu": 6577,
      "echtigkeiten": 6578,
      "Ġgelangen": 6579,
      "Ġgelernten": 6580,
      "ikeln": 6581,
      "astisch": 6582,
      "Ġseinem": 6583,
      "ĠbestÃ¤tigen": 6584,
      "Ġgesetzt": 6585,
      "wendung": 6586,
      "Ġabgel": 6587,
      "Ġabgesehen": 6588,
      "ĠTrainingsmethode": 6589,
      "ĠTrainingsrunden": 6590,
      "Ġwirken": 6591,
      "Ġzusammenzu": 6592,
      "Ġzusammenzusetzen": 6593,
      "Ġzusammengeh": 6594,
      "ĠLernprogramms": 6595,
      "weizer": 6596,
      "eister": 6597,
      "ĠTextanalyse": 6598,
      "ĠTextbereich": 6599,
      "Ġstarken": 6600,
      "ringst": 6601,
      "ĠBildes": 6602,
      "ĠBildteile": 6603,
      "ĠRechenweg": 6604,
      "ĠRechenregeln": 6605,
      "ĠRechenfunktionen": 6606,
      "ĠRechenwege": 6607,
      "ĠHauptged": 6608,
      "ĠZeitschritte": 6609,
      "Ġverschiebt": 6610,
      "Worauf": 6611,
      "Ġunseren": 6612,
      "Ġwiederverwenden": 6613,
      "ĠbekÃ¤": 6614,
      "Ġwobei": 6615,
      "Ġworauf": 6616,
      "aussage": 6617,
      "ĠTrainingsdatensatz": 6618,
      "ĠArtikeln": 6619,
      "ĠÃľberanpassen": 6620,
      "urzel": 6621,
      "artikel": 6622,
      "stÃ¤ndige": 6623,
      "Ġdarstellt": 6624,
      "Ġdarzustellen": 6625,
      "Ġihrem": 6626,
      "arial": 6627,
      "solute": 6628,
      "Lernfortschritts": 6629,
      "Ġdiesel": 6630,
      "erating": 6631,
      "suchung": 6632,
      "ĠAbhÃ¤ng": 6633,
      "ĠAbsolute": 6634,
      "ĠNetzwerks": 6635,
      "innert": 6636,
      "Ġfestlegen": 6637,
      "ĠfesthÃ¤lt": 6638,
      "Ġfestlegt": 6639,
      "gerlich": 6640,
      "ienen": 6641,
      "Ġnormaler": 6642,
      "Ġnormalisiert": 6643,
      "hÃ¤nomen": 6644,
      "ĠFreunden": 6645,
      "ĠFreunde": 6646,
      "Ġstabilere": 6647,
      "Ġstabilisiert": 6648,
      "Ġweiterzugeben": 6649,
      "ĠKonzentr": 6650,
      "ĠWichtigkeit": 6651,
      "Recurrent": 6652,
      "vollstÃ¤ndig": 6653,
      "ĠbeschrÃ¤nkt": 6654,
      "hme": 6655,
      "Verd": 6656,
      "Verg": 6657,
      "VerstÃ¤ndnis": 6658,
      "usstest": 6659,
      "Ġeinmalig": 6660,
      "Beide": 6661,
      "Beispiele": 6662,
      "Spiele": 6663,
      "ĠJetzt": 6664,
      "Ġvorherige": 6665,
      "ĠBeenden": 6666,
      "ĠKatzenf": 6667,
      "Ġeinziger": 6668,
      "Ġeinzusetzen": 6669,
      "Ã¤usche": 6670,
      "ĠWegweiser": 6671,
      "fÃ¼t": 6672,
      "Ġechtes": 6673,
      "Meinst": 6674,
      "Regler": 6675,
      "Struktur": 6676,
      "log": 6677,
      "Ġschwieriger": 6678,
      "Ġschwieriges": 6679,
      "Ġschwierigsten": 6680,
      "Entscheider": 6681,
      "ĠBesonderes": 6682,
      "ĠBesonderheiten": 6683,
      "ĠGerechtigkeit": 6684,
      "ĠGerÃ¤usche": 6685,
      "Ġbevorzug": 6686,
      "gleichen": 6687,
      "Ġbergab": 6688,
      "ĠBauplan": 6689,
      "Ã¤hrlich": 6690,
      "ardware": 6691,
      "Ġangewendet": 6692,
      "Ġangefangen": 6693,
      "Ġsorge": 6694,
      "Ġverlang": 6695,
      "Ġkomplexeren": 6696,
      "Ġtiefsten": 6697,
      "Merkmalen": 6698,
      "Ġgewohnt": 6699,
      "ĠgewÃ¤hlten": 6700,
      "Ġherausfindet": 6701,
      "adlin": 6702,
      "kennung": 6703,
      "ĠPrompts": 6704,
      "Ġexpon": 6705,
      "Ġexperiment": 6706,
      "Lernprogramms": 6707,
      "Netzwerks": 6708,
      "Problemen": 6709,
      "istent": 6710,
      "istic": 6711,
      "akte": 6712,
      "licherweise": 6713,
      "Ã¤tzungen": 6714,
      "ĠEingabefaktoren": 6715,
      "gesamt": 6716,
      "Ġliebe": 6717,
      "ideen": 6718,
      "Ġalter": 6719,
      "Ã¤ufen": 6720,
      "Funktionen": 6721,
      "Ġhohem": 6722,
      "ĠÃĦhn": 6723,
      "Ġwelchem": 6724,
      "Ġbewusst": 6725,
      "ĠLernmodells": 6726,
      "Ġdirekten": 6727,
      "Ġjemanden": 6728,
      "ĠgefÃ¤hrlich": 6729,
      "ĠComputernetze": 6730,
      "Ġunserer": 6731,
      "ĠOptimierers": 6732,
      "')!": 6733,
      "antisch": 6734,
      "antastisch": 6735,
      "eiltes": 6736,
      "KÃ¶nnten": 6737,
      "ĠSorte": 6738,
      "ĠNutze": 6739,
      "ĠMerkmalskarten": 6740,
      "Ġvolle": 6741,
      "Belohnungen": 6742,
      "Ġeinzelner": 6743,
      "Ġschlauen": 6744,
      "ĠbeschÃ¤ftige": 6745,
      "Ġschaden": 6746,
      "ĠSpieler": 6747,
      "liot": 6748,
      "ĠDafÃ¼r": 6749,
      "ĠSatzzeichen": 6750,
      "ĠQualitÃ¤ts": 6751,
      "sÃ¤tzlich": 6752,
      "Ġletzter": 6753,
      "ĠhÃ¤ufige": 6754,
      "ĠWerkzeugen": 6755,
      "Ġentscheidende": 6756,
      "Ġdeutlichen": 6757,
      "Ġwegnimmt": 6758,
      "Ġwegzulassen": 6759,
      "Ġstattdessen": 6760,
      "ĠVideospielen": 6761,
      "ĠGenerators": 6762,
      "kontroll": 6763,
      "ĠGerichte": 6764,
      "zufÃ¤llig": 6765,
      "ĠÃ¼bt": 6766,
      "ĠzurÃ¼ckver": 6767,
      "Ġbeginnt": 6768,
      "ĠGedichte": 6769,
      "ĠGeduld": 6770,
      "ĠGewichten": 6771,
      "Ġlogische": 6772,
      "ungsfÃ¤higkeit": 6773,
      "selben": 6774,
      "selbst": 6775,
      "ĠnÃ¶tigen": 6776,
      "ĠnÃ¶tige": 6777,
      "ĠMesswert": 6778,
      "Ã¼rzt": 6779,
      "Ġbeibringe": 6780,
      "ĠGeschmack": 6781,
      "gends": 6782,
      "ĠSchlechte": 6783,
      "Ġspreche": 6784,
      "Ġsinnvollen": 6785,
      "Faltungen": 6786,
      "Guter": 6787,
      "Zusammenfassungs": 6788,
      "ĠKochrezept": 6789,
      "Ġkomplizierteste": 6790,
      "dÃ¼nn": 6791,
      "ĠLernsystemen": 6792,
      "druck": 6793,
      "Ġspeichere": 6794,
      "Ġgestellt": 6795,
      "ĠTeamarbeit": 6796,
      "plodierende": 6797,
      "ĠUmwand": 6798,
      "ĠzukÃ¼nftigen": 6799,
      "ĠTheorie": 6800,
      "ĠNachdem": 6801,
      "ĠNachdenken": 6802,
      "rainiertes": 6803,
      "Ġaussehende": 6804,
      "ĠStÃ¼cke": 6805,
      "ĠUnteranpassung": 6806,
      "Neuronalen": 6807,
      "ĠVerbesserungen": 6808,
      "ĠRÃ¼ckmeldungen": 6809,
      "ĠNormalfall": 6810,
      "Ġendlo": 6811,
      "Ġauftauchen": 6812,
      "Ġoffenen": 6813,
      "ĠVerkleinern": 6814,
      "Ġauszuschalten": 6815,
      "Ġauszugleichen": 6816,
      "Ġniedriger": 6817,
      "Ġwiederholenden": 6818,
      "ĠÃ¼bern": 6819,
      "ĠÃ¼blichen": 6820,
      "legst": 6821,
      "rengung": 6822,
      "ĠSicherung": 6823,
      "Ġfehlende": 6824,
      "schlag": 6825,
      "ĠFreiheit": 6826,
      "ĠHilft": 6827,
      "ĠHilfs": 6828,
      "Ġpraktischer": 6829,
      "ĠhÃ¶here": 6830,
      "dukt": 6831,
      "ĠDarstellungen": 6832,
      "ĠZufall": 6833,
      "entwicklung": 6834,
      "ĠverstÃ¤ndliche": 6835,
      "Ġprobiert": 6836,
      "Ġsparsam": 6837,
      "ĠÃľbersetzer": 6838,
      "ĠArbeitsleistung": 6839,
      "Merkmalskarte": 6840,
      "Merkmalsauswahl": 6841,
      "ĠvollstÃ¤ndiger": 6842,
      "arithmus": 6843,
      "Ġgeradlin": 6844,
      "ĠKategorie": 6845,
      "ĠAnwendung": 6846,
      "Ġschwanken": 6847,
      "ĠWissensdatenb": 6848,
      "Ġinsgesamt": 6849,
      "ĠKonvolutionsnetzwerke": 6850,
      "Sprache": 6851,
      "Ġtechnischer": 6852,
      "ĠBausteinen": 6853,
      "maÃŁen": 6854,
      "Ġsinken": 6855,
      "Ġbasiert": 6856,
      "Ġbasieren": 6857,
      "Ġbereits": 6858,
      "Ġvorauszusagen": 6859,
      "Ġerfundene": 6860,
      "Ġrauskommt": 6861,
      "Ġcleveres": 6862,
      "ĠpersÃ¶nlich": 6863,
      "ĠpersÃ¶nliche": 6864,
      "Bilderkennung": 6865,
      "Kenne": 6866,
      "Ġwahre": 6867,
      "Ġkompakte": 6868,
      "ĠWarn": 6869,
      "Ġkluges": 6870,
      "Ġerstellst": 6871,
      "ĠRekurr": 6872,
      "appschuss": 6873,
      "Algorithmen": 6874,
      "Ġdreimal": 6875,
      "ĠLaune": 6876,
      "ĠhÃ¶chste": 6877,
      "Ġregelt": 6878,
      "ĠregelmÃ¤ÃŁ": 6879,
      "ĠStrafen": 6880,
      "ĠStrafe": 6881,
      "Ġablenkt": 6882,
      "Ġkennengelernt": 6883,
      "ĠungestÃ¶rte": 6884,
      "Brauche": 6885,
      "Darstellung": 6886,
      "lossen": 6887,
      "Ġ->": 6888,
      "Ġrohe": 6889,
      "Ġzerlegt": 6890,
      "ĠunabhÃ¤ngig": 6891,
      "ĠunabhÃ¤ngige": 6892,
      "ĠPanik": 6893,
      "ĠFluss": 6894,
      "ĠFlÃ¤che": 6895,
      "ĠFoto": 6896,
      "Ġvorsichtiger": 6897,
      "Ġwiederherstellen": 6898,
      "Ġwiederherzustellen": 6899,
      "ĠEingangsdaten": 6900,
      "ĠKontrollen": 6901,
      "Ġbeschleunigen": 6902,
      "ĠGegensatz": 6903,
      "ĠGegenstÃ¤nde": 6904,
      "ĠGesamtmodell": 6905,
      "Zahlenliste": 6906,
      "Durchaus": 6907,
      "ahnsinn": 6908,
      "Ġmodernen": 6909,
      "Ġverschwinden": 6910,
      "Ġverschwindenden": 6911,
      "Ġschreibst": 6912,
      "ĠvielfÃ¤ltig": 6913,
      "ĠSpezial": 6914,
      "Ġrechtzeitig": 6915,
      "ĠAnstrengung": 6916,
      "ĠTextmengen": 6917,
      "ĠAbweich": 6918,
      "Ġkomplizierter": 6919,
      "Ġplane": 6920,
      "Ġplanen": 6921,
      "Ġproduktiver": 6922,
      "Ġproduktivsten": 6923,
      "Ġknuspriges": 6924,
      "ĠBearbeiten": 6925,
      "ĠBearbeitung": 6926,
      "Rekonstruktionsfehler": 6927,
      "fallen": 6928,
      "ĠÃ¤ndere": 6929,
      "ĠÃ¤nderst": 6930,
      "Ġeinzubauen": 6931,
      "ĠDreh": 6932,
      "ĠunverÃ¤ndert": 6933,
      "Ġunerwartete": 6934,
      "ĠLogarithmus": 6935,
      "Ġlustige": 6936,
      "ĠKrankheit": 6937,
      "ĠKrankheiten": 6938,
      "ĠTÃ¼rsteher": 6939,
      "ĠFachartikel": 6940,
      "Ġschaffe": 6941,
      "Ġschaffst": 6942,
      "ĠCharacter": 6943,
      "verstanden": 6944,
      "Ġzusammengefasst": 6945,
      "Recall": 6946,
      "Receiver": 6947,
      "Ġkonkrete": 6948,
      "ĠQuantisierungs": 6949,
      "ĠFehlerkurve": 6950,
      "ĠRobotern": 6951,
      "ĠRobotik": 6952,
      "Ġgesammelten": 6953,
      "ĠEmpfehlungen": 6954,
      "Ġoptimale": 6955,
      "App": 6956,
      "Aktivierungen": 6957,
      "Explodierende": 6958,
      "Vielleicht": 6959,
      "grÃ¶ÃŁen": 6960,
      "linearer": 6961,
      "perfekte": 6962,
      "zeichnen": 6963,
      "Ġ20": 6964,
      "standsfÃ¤higer": 6965,
      "Ġeinheitlich": 6966,
      "Ġmusste": 6967,
      "Ġbasteln": 6968,
      "Ġzugreifen": 6969,
      "ĠkÃ¤mpfe": 6970,
      "Ġverzweifle": 6971,
      "ĠWerbet": 6972,
      "ĠWoche": 6973,
      "ĠTrennung": 6974,
      "ĠGewohn": 6975,
      "Ġsogenannten": 6976,
      "ĠZauberei": 6977,
      "Ġversteckten": 6978,
      "ĠStrategie": 6979,
      "versarial": 6980,
      "ĠOperating": 6981,
      "Schwank": 6982,
      "Ġweiterleitet": 6983,
      "Ġweiterentwickelt": 6984,
      "Ġkontrolliert": 6985,
      "Ġeinzigart": 6986,
      "Startwerte": 6987,
      "Trainingsdaten": 6988,
      "ĠgewÃ¶hnt": 6989,
      "Ġwissenschaftlichen": 6990,
      "ĠEntscheidungsbÃ¤ume": 6991,
      "Ġoffensichtlichsten": 6992,
      "schlÃ¤gt": 6993,
      "Ġkomprimieren": 6994,
      "ĠHerausforderung": 6995,
      "Ġzentralen": 6996,
      "Ġmittlere": 6997,
      "Ġignorieren": 6998,
      "ĠTaschenmesser": 6999,
      "Autoencoder": 7000,
      "Sigmoid": 7001,
      "Wegweiser": 7002,
      "ĠÃ¤rgerlich": 7003,
      "ĠwiderstandsfÃ¤higer": 7004,
      "ĠnatÃ¼rlich": 7005,
      "ĠSolche": 7006,
      "ĠkÃ¼mmern": 7007,
      "ĠLandkarte": 7008,
      "ĠPflicht": 7009,
      "ĠAchte": 7010,
      "Ġverursachen": 7011,
      "ĠWesentliche": 7012,
      "ĠKreislauf": 7013,
      "Ġinvestieren": 7014,
      "Ġgenerieren": 7015,
      "Ġaufzuteilen": 7016,
      "Ġaufgefallen": 7017,
      "ĠSchreibweisen": 7018,
      "Ġausgelegt": 7019,
      "Ġvorankommt": 7020,
      "ĠInternet": 7021,
      "ĠÃ¼berprÃ¼fen": 7022,
      "ĠÃ¼berflÃ¼ssige": 7023,
      "ĠHohe": 7024,
      "ĠVergangenheit": 7025,
      "Ġverborgene": 7026,
      "ĠfÃ¼ttert": 7027,
      "Ġkurzfristig": 7028,
      "Ġrealist": 7029,
      "Entscheidungen": 7030,
      "Ġherausfiltern": 7031,
      "ĠungewÃ¶hnliche": 7032,
      "ĠGraphisches": 7033,
      "Ġbeliebte": 7034,
      "ĠAblenkung": 7035,
      "Strategie": 7036,
      "ĠKompliziertheit": 7037,
      "ĠÃ¤uÃŁern": 7038,
      "Ġunvorhersehbar": 7039,
      "Benutzt": 7040,
      "Falle": 7041,
      "Grenzwert": 7042,
      "Probedaten": 7043,
      "Random": 7044,
      "Score": 7045,
      "Sammel": 7046,
      "Sequenzen": 7047,
      "Trinkst": 7048,
      "fertig": 7049,
      "halluziniert": 7050,
      "Ġromantisch": 7051,
      "Ġdetaill": 7052,
      "ĠdÃ¼nn": 7053,
      "ĠdrauÃŁen": 7054,
      "Ġdistanziert": 7055,
      "Ġmotiviert": 7056,
      "Ġgilt": 7057,
      "Ġarrog": 7058,
      "Ġnirgends": 7059,
      "Ġzufrieden": 7060,
      "ĠDefinition": 7061,
      "ĠunmÃ¶glich": 7062,
      "etriken": 7063,
      "ĠLangzeit": 7064,
      "ĠAhnung": 7065,
      "ĠBibliot": 7066,
      "ĠBÃ¼chern": 7067,
      "ĠBERT": 7068,
      "ĠBrettspiele": 7069,
      "Ġvertieft": 7070,
      "ĠWelches": 7071,
      "ĠKreativitÃ¤t": 7072,
      "ĠFokus": 7073,
      "Ġbeobachtet": 7074,
      "ĠGerede": 7075,
      "Ġinspiriert": 7076,
      "Ġinterpretieren": 7077,
      "Ġangenehm": 7078,
      "Ġangehender": 7079,
      "Ġaufwendige": 7080,
      "ĠSchutzmethode": 7081,
      "Ġaussuchen": 7082,
      "Ġstufen": 7083,
      "ckbrief": 7084,
      "Wiederholung": 7085,
      "Ġerspart": 7086,
      "ĠerfÃ¼llt": 7087,
      "Ġerwarten": 7088,
      "Ġerzielen": 7089,
      "ĠStille": 7090,
      "ĠAngleichung": 7091,
      "ĠVerschiebungen": 7092,
      "rchitektur": 7093,
      "Ġdurchschauen": 7094,
      "ĠzusammengehÃ¶ren": 7095,
      "ĠHauptgedanke": 7096,
      "Lernfortschrittskurve": 7097,
      "ĠAbhÃ¤ngigkeiten": 7098,
      "ĠKonzentriere": 7099,
      "Strukturen": 7100,
      "Ġexponentiel": 7101,
      "ĠHilfsmittel": 7102,
      "ĠCharacteristic": 7103,
      "ĠWerbetex": 7104,
      "\".[": 7105,
      "'?": 7106,
      "()'": 7107,
      ")!": 7108,
      "-/": 7109,
      ".'": 7110,
      "Ad": 7111,
      "Auch": 7112,
      "Act": 7113,
      "Architektur": 7114,
      "Best": 7115,
      "Bag": 7116,
      "Bru": 7117,
      "BPT": 7118,
      "Bild": 7119,
      "Ch": 7120,
      "Chatbot": 7121,
      "Class": 7122,
      "Des": 7123,
      "Dat": 7124,
      "Diskrimin": 7125,
      "Dile": 7126,
      "Dimension": 7127,
      "Direkt": 7128,
      "Eind": 7129,
      "Fl": 7130,
      "Fehl": 7131,
      "Frage": 7132,
      "Fantastisch": 7133,
      "Ges": 7134,
      "Gat": 7135,
      "Gibst": 7136,
      "Gated": 7137,
      "Grap": 7138,
      "GÃ¼te": 7139,
      "Ho": 7140,
      "Her": 7141,
      "Haust": 7142,
      "Immer": 7143,
      "Komp": 7144,
      "Kaff": 7145,
      "Kette": 7146,
      "Lernt": 7147,
      "Lay": 7148,
      "Liebling": 7149,
      "Long": 7150,
      "LÃ¶sung": 7151,
      "Mess": 7152,
      "Mail": 7153,
      "Machen": 7154,
      "Mean": 7155,
      "Matrix": 7156,
      "Musstest": 7157,
      "Nur": 7158,
      "Noch": 7159,
      "Nutzt": 7160,
      "Online": 7161,
      "PU": 7162,
      "Pommes": 7163,
      "Rie": 7164,
      "Richt": 7165,
      "Rest": 7166,
      "RNN": 7167,
      "Rez": 7168,
      "Sk": 7169,
      "Sei": 7170,
      "Sem": 7171,
      "Sagt": 7172,
      "Sehe": 7173,
      "Sicher": 7174,
      "SVM": 7175,
      "Suchen": 7176,
      "TP": 7177,
      "Tat": 7178,
      "Tur": 7179,
      "Tex": 7180,
      "Typ": 7181,
      "Total": 7182,
      "Tensor": 7183,
      "Trenn": 7184,
      "Trend": 7185,
      "Vert": 7186,
      "Vort": 7187,
      "Vanis": 7188,
      "Wor": 7189,
      "Wichtig": 7190,
      "Will": 7191,
      "WÃ¤hrend": 7192,
      "Werkzeu": 7193,
      "Winkel": 7194,
      "Wurzel": 7195,
      "Zeit": 7196,
      "Zum": 7197,
      "aot": 7198,
      "afft": 7199,
      "bl": 7200,
      "bie": 7201,
      "band": 7202,
      "bliche": 7203,
      "block": 7204,
      "cis": 7205,
      "cannt": 7206,
      "call": 7207,
      "dat": 7208,
      "dig": 7209,
      "dliche": 7210,
      "drÃ¼ck": 7211,
      "dunk": 7212,
      "dliches": 7213,
      "digital": 7214,
      "fern": 7215,
      "filter": 7216,
      "fÃ¤lscht": 7217,
      "gier": 7218,
      "ging": 7219,
      "gÃ¤n": 7220,
      "gerade": 7221,
      "gien": 7222,
      "gfÃ¤lt": 7223,
      "gÃ¤ngen": 7224,
      "hÃ¶": 7225,
      "hil": 7226,
      "hÃ¤r": 7227,
      "hek": 7228,
      "haltet": 7229,
      "imp": 7230,
      "ift": 7231,
      "isten": 7232,
      "jenig": 7233,
      "kal": 7234,
      "kte": 7235,
      "klich": 7236,
      "kur": 7237,
      "kund": 7238,
      "kam": 7239,
      "krÃ¤": 7240,
      "kzept": 7241,
      "kreativ": 7242,
      "kategor": 7243,
      "klass": 7244,
      "lÃ¶": 7245,
      "lecht": 7246,
      "lÃ¼ck": 7247,
      "lesen": 7248,
      "lÃ¤nge": 7249,
      "mess": 7250,
      "mand": 7251,
      "macht": 7252,
      "map": 7253,
      "nein": 7254,
      "nicht": 7255,
      "nutz": 7256,
      "normal": 7257,
      "numm": 7258,
      "ohÃ¤r": 7259,
      "pf": 7260,
      "pp": 7261,
      "par": 7262,
      "pft": 7263,
      "ped": 7264,
      "paramet": 7265,
      "prakt": 7266,
      "phase": 7267,
      "packt": 7268,
      "rel": 7269,
      "reich": 7270,
      "ruf": 7271,
      "red": 7272,
      "rigen": 7273,
      "reiten": 7274,
      "rechnen": 7275,
      "rechner": 7276,
      "sich": 7277,
      "sehr": 7278,
      "sol": 7279,
      "sigkeit": 7280,
      "setzt": 7281,
      "ssystem": 7282,
      "skopien": 7283,
      "scannt": 7284,
      "sred": 7285,
      "tig": 7286,
      "tÃ¼ck": 7287,
      "takt": 7288,
      "trainieren": 7289,
      "uer": 7290,
      "uden": 7291,
      "ulÃ¤r": 7292,
      "ule": 7293,
      "uktion": 7294,
      "uration": 7295,
      "viel": 7296,
      "viele": 7297,
      "vante": 7298,
      "weit": 7299,
      "wenn": 7300,
      "wann": 7301,
      "wÃ¼r": 7302,
      "wungen": 7303,
      "wÃ¤nd": 7304,
      "work": 7305,
      "wegen": 7306,
      "wÃ¶rter": 7307,
      "ymm": 7308,
      "yrin": 7309,
      "zt": 7310,
      "zung": 7311,
      "zichtbar": 7312,
      "Â²": 7313,
      "Ġ/": 7314,
      "Ġ4": 7315,
      "Ġeth": 7316,
      "Ġrat": 7317,
      "ĠÃ¤l": 7318,
      "Ġorden": 7319,
      "Ġraucht": 7320,
      "enende": 7321,
      "erversch": 7322,
      "erinnert": 7323,
      "ermaÃŁen": 7324,
      "cht": 7325,
      "information": 7326,
      "insel": 7327,
      "Ġdopp": 7328,
      "Ġdank": 7329,
      "Ġdunk": 7330,
      "Ġdienen": 7331,
      "stwert": 7332,
      "start": 7333,
      "stimmen": 7334,
      "strum": 7335,
      "ieber": 7336,
      "ieÃŁe": 7337,
      "iehlst": 7338,
      "iemlich": 7339,
      "einer": 7340,
      "einschaft": 7341,
      "einhaltet": 7342,
      "ase": 7343,
      "asped": 7344,
      "Ġsup": 7345,
      "Ġsenk": 7346,
      "Ġsetzen": 7347,
      "ĠsÃ¼ch": 7348,
      "Ġsimp": 7349,
      "Ġsymm": 7350,
      "ĠwÃ¼n": 7351,
      "Ġworan": 7352,
      "Ġwild": 7353,
      "Ġwesent": 7354,
      "eiden": 7355,
      "eisen": 7356,
      "esst": 7357,
      "ane": 7358,
      "anweisung": 7359,
      "Ġeinb": 7360,
      "Ġeinsch": 7361,
      "Ġeinbau": 7362,
      "Ġeinbauen": 7363,
      "Ġeinteilt": 7364,
      "ĠeinschÃ¤tzen": 7365,
      "Ġeinteilen": 7366,
      "elde": 7367,
      "ichst": 7368,
      "ĠmÃ¼": 7369,
      "Ġmax": 7370,
      "Ġmindern": 7371,
      "raten": 7372,
      "raht": 7373,
      "ragend": 7374,
      "Ġging": 7375,
      "Ġgab": 7376,
      "Ġgeg": 7377,
      "ĠgÃ¶n": 7378,
      "ĠgrÃ¼n": 7379,
      "Ġbeit": 7380,
      "Ġbill": 7381,
      "Ġblo": 7382,
      "Ġblock": 7383,
      "Ġbald": 7384,
      "Ġbringst": 7385,
      "ĠblÃ¶": 7386,
      "Ġbeinhaltet": 7387,
      "Ġvorm": 7388,
      "erner": 7389,
      "atik": 7390,
      "atast": 7391,
      "aterial": 7392,
      "ĠzÃ¤hl": 7393,
      "ĠzÃ¶g": 7394,
      "Ġzerst": 7395,
      "Ġzieht": 7396,
      "Ġzaub": 7397,
      "roh": 7398,
      "rohen": 7399,
      "Ġabst": 7400,
      "Ġalt": 7401,
      "Ġagiert": 7402,
      "mma": 7403,
      "ehÃ¶r": 7404,
      "ehalten": 7405,
      "Ġzugesch": 7406,
      "ĠzustÃ¤ndig": 7407,
      "ĠDeut": 7408,
      "oden": 7409,
      "Ã¼ÃŁen": 7410,
      "Ã¼gel": 7411,
      "Ã¼pft": 7412,
      "elles": 7413,
      "ellschaft": 7414,
      "igste": 7415,
      "online": 7416,
      "ĠSal": 7417,
      "ĠSag": 7418,
      "ĠSqu": 7419,
      "ĠSeite": 7420,
      "ĠSkal": 7421,
      "ĠServersch": 7422,
      "ĠunÃ¼ber": 7423,
      "Ġunzu": 7424,
      "ĠunÃ¤hn": 7425,
      "ĠunÃ¼bersicht": 7426,
      "Ġunschlag": 7427,
      "Ġunprakt": 7428,
      "etyp": 7429,
      "Ã¤ten": 7430,
      "Ã¤gung": 7431,
      "ĠkohÃ¤r": 7432,
      "orrel": 7433,
      "are": 7434,
      "arr": 7435,
      "ared": 7436,
      "ĠMon": 7437,
      "ĠMann": 7438,
      "ĠMol": 7439,
      "ĠMed": 7440,
      "ĠMitt": 7441,
      "ĠMag": 7442,
      "ĠMaus": 7443,
      "ĠMechanismus": 7444,
      "ĠMomen": 7445,
      "ĠMatrix": 7446,
      "ĠMeister": 7447,
      "ĠMetriken": 7448,
      "Ġfre": 7449,
      "ĠfÃ¼n": 7450,
      "Ġfangen": 7451,
      "Ġfassen": 7452,
      "ĠfÃ¤l": 7453,
      "Ġfrag": 7454,
      "Ġfaul": 7455,
      "itialisierung": 7456,
      "itzen": 7457,
      "ierige": 7458,
      "ierbar": 7459,
      "ĠLeit": 7460,
      "ĠLÃ¶": 7461,
      "ĠLÃ¤r": 7462,
      "ĠLong": 7463,
      "ĠLÃ¼cken": 7464,
      "Ġletzt": 7465,
      "Ġlauf": 7466,
      "Ġlock": 7467,
      "emaschine": 7468,
      "emeinschaft": 7469,
      "alls": 7470,
      "Ġhell": 7471,
      "Ġhind": 7472,
      "Ġhab": 7473,
      "Ġheim": 7474,
      "irn": 7475,
      "irgt": 7476,
      "irrt": 7477,
      "irma": 7478,
      "ĠEtiketten": 7479,
      "indert": 7480,
      "ĠPf": 7481,
      "ĠPrei": 7482,
      "ĠPong": 7483,
      "ĠPower": 7484,
      "ĠPhÃ¤nomen": 7485,
      "ĠPinsel": 7486,
      "ingungen": 7487,
      "ĠAls": 7488,
      "ĠAsp": 7489,
      "ĠAktiv": 7490,
      "ĠAlt": 7491,
      "ĠAss": 7492,
      "ĠApp": 7493,
      "eites": 7494,
      "schreiben": 7495,
      "schichten": 7496,
      "schichtige": 7497,
      "schnitten": 7498,
      "ennis": 7499,
      "ennetzen": 7500,
      "ĠauÃŁer": 7501,
      "Ġderjenig": 7502,
      "ĠBet": 7503,
      "ĠBier": 7504,
      "ĠBeil": 7505,
      "ĠBrauch": 7506,
      "ĠBehe": 7507,
      "ĠBek": 7508,
      "ĠBug": 7509,
      "ĠBrem": 7510,
      "ĠBÃ¤umen": 7511,
      "ĠBlog": 7512,
      "ĠBoden": 7513,
      "Ġverr": 7514,
      "ĠverfÃ¼": 7515,
      "Ġverfehl": 7516,
      "Ġverschl": 7517,
      "Ġvereint": 7518,
      "Ġversagt": 7519,
      "Ġverkn": 7520,
      "Ġverirrt": 7521,
      "ĠWA": 7522,
      "ĠWahr": 7523,
      "ĠWeiter": 7524,
      "ĠWorten": 7525,
      "ĠWeile": 7526,
      "ĠWorte": 7527,
      "ĠWahnsinn": 7528,
      "anne": 7529,
      "ausch": 7530,
      "ielt": 7531,
      "ielles": 7532,
      "ĠDatensamm": 7533,
      "ĠDatenwerte": 7534,
      "ĠDatenanalyse": 7535,
      "ĠDatenreihe": 7536,
      "ĠKein": 7537,
      "ĠKomm": 7538,
      "ĠKakt": 7539,
      "ĠKÃ¶ch": 7540,
      "ĠKatast": 7541,
      "ĠKorrel": 7542,
      "ĠTier": 7543,
      "ĠTre": 7544,
      "ĠTechn": 7545,
      "ĠToren": 7546,
      "ĠTolle": 7547,
      "ĠTore": 7548,
      "abl": 7549,
      "ĠFass": 7550,
      "ĠFlei": 7551,
      "ĠFiltern": 7552,
      "ĠFrauen": 7553,
      "ĠFirma": 7554,
      "dergebnis": 7555,
      "Ġschief": 7556,
      "ĠschÃ¼tzt": 7557,
      "Ġschuld": 7558,
      "ĠschieÃŁ": 7559,
      "geg": 7560,
      "erkunft": 7561,
      "erkorrektur": 7562,
      "ichtiges": 7563,
      "lichem": 7564,
      "Ġbefasst": 7565,
      "Ġbeachte": 7566,
      "Ġbefindet": 7567,
      "Ġbefassen": 7568,
      "ĠProgrammierung": 7569,
      "ĠProgrammgrÃ¶ÃŁe": 7570,
      "berg": 7571,
      "bereiter": 7572,
      "bereitet": 7573,
      "denke": 7574,
      "ĠGol": 7575,
      "ĠGNNs": 7576,
      "ĠGeld": 7577,
      "ĠGehirnen": 7578,
      "ĠGegner": 7579,
      "ĠGlÃ¼ck": 7580,
      "ĠGasped": 7581,
      "ĠGemeinschaft": 7582,
      "ĠCurve": 7583,
      "ĠCallback": 7584,
      "ĠNag": 7585,
      "ĠNotwend": 7586,
      "ĠNatur": 7587,
      "ĠNichts": 7588,
      "Ġ(\"": 7589,
      "Ġinter": 7590,
      "ĠRess": 7591,
      "ĠRecht": 7592,
      "ĠRunde": 7593,
      "ĠRechnung": 7594,
      "ĠRichtiges": 7595,
      "Ġant": 7596,
      "ĠanhÃ¶ren": 7597,
      "Ġangeht": 7598,
      "Ġanpasse": 7599,
      "Ġangesehen": 7600,
      "Ġangelernt": 7601,
      "Ġanschau": 7602,
      "Ġsomit": 7603,
      "Ġdenselben": 7604,
      "isual": 7605,
      "isierte": 7606,
      "isser": 7607,
      "ĠModellbau": 7608,
      "ĠModellkarten": 7609,
      "Ġmanuell": 7610,
      "erntes": 7611,
      "ĠIrgend": 7612,
      "ĠIsol": 7613,
      "ĠComputers": 7614,
      "ĠComputerress": 7615,
      "ĠComputersprach": 7616,
      "ĠComputerspielen": 7617,
      "Ġmitmachen": 7618,
      "ĠZwei": 7619,
      "ĠZelle": 7620,
      "ĠZeilen": 7621,
      "ĠZurÃ¼ck": 7622,
      "ĠZweit": 7623,
      "ĠVert": 7624,
      "ĠVoll": 7625,
      "ĠVib": 7626,
      "ĠVora": 7627,
      "ĠVektor": 7628,
      "ĠValidierungs": 7629,
      "Ġumg": 7630,
      "Ġumfassen": 7631,
      "Ġumzusetzen": 7632,
      "ÃŁband": 7633,
      "Ġdavor": 7634,
      "echungen": 7635,
      "essern": 7636,
      "teren": 7637,
      "Ã¤rkt": 7638,
      "eilten": 7639,
      "Ġneugier": 7640,
      "rainierten": 7641,
      "sendet": 7642,
      "ĠgenieÃŁe": 7643,
      "Ġklamm": 7644,
      "ertes": 7645,
      "Ġaufweisen": 7646,
      "Ġaufbaut": 7647,
      "Ġaufget": 7648,
      "ĠaufwÃ¤nd": 7649,
      "Ġtrad": 7650,
      "Ġtop": 7651,
      "Ġtolle": 7652,
      "Ġtheor": 7653,
      "eichern": 7654,
      "eichertes": 7655,
      "ĠSchnell": 7656,
      "ĠSchalt": 7657,
      "ĠSchlei": 7658,
      "ĠSchreiben": 7659,
      "ĠSchweizer": 7660,
      "ĠSchÃ¤tzungen": 7661,
      "ĠLernvor": 7662,
      "ĠLernfort": 7663,
      "ĠLernschritt": 7664,
      "ĠLernfortschritt": 7665,
      "ĠLernarten": 7666,
      "ĠLernschritten": 7667,
      "entweder": 7668,
      "Ġausged": 7669,
      "Ġaussage": 7670,
      "Ġausdenkt": 7671,
      "Ġauswerten": 7672,
      "Ġaussort": 7673,
      "Ġaussendet": 7674,
      "stens": 7675,
      "Ġstand": 7676,
      "ĠstÃ¶r": 7677,
      "Ġstill": 7678,
      "Ġsteig": 7679,
      "Ġstehst": 7680,
      "Ġstarr": 7681,
      "Ġsichere": 7682,
      "Ġerhalten": 7683,
      "Ġerfindet": 7684,
      "ĠerhÃ¶": 7685,
      "ungsprogramm": 7686,
      "ungsbew": 7687,
      "ungsmess": 7688,
      "ĠSpag": 7689,
      "ĠSpalten": 7690,
      "ĠSpÃ¤ter": 7691,
      "ĠSpeichern": 7692,
      "Ġvorge": 7693,
      "Ġvorkommt": 7694,
      "Ġvorgeht": 7695,
      "ĠvorschlÃ¤gt": 7696,
      "egler": 7697,
      "ĠrÃ¤t": 7698,
      "ĠrÃ¤um": 7699,
      "Ġrele": 7700,
      "estet": 7701,
      "ĠErste": 7702,
      "ĠErstens": 7703,
      "ĠInteress": 7704,
      "ĠInitialisierung": 7705,
      "Ã¼berlernt": 7706,
      "Ã¼beranpassen": 7707,
      "ischer": 7708,
      "ischem": 7709,
      "ĠFehlersuch": 7710,
      "ĠDass": 7711,
      "ĠStein": 7712,
      "ĠStil": 7713,
      "ĠStap": 7714,
      "ĠStarte": 7715,
      "ĠStad": 7716,
      "ĠStimmen": 7717,
      "ĠStile": 7718,
      "ĠStuden": 7719,
      "rachlich": 7720,
      "Einen": 7721,
      "immte": 7722,
      "ĠAnsicht": 7723,
      "ĠAngst": 7724,
      "ĠAnalys": 7725,
      "ĠAnbindung": 7726,
      "ĠAntr": 7727,
      "ĠSprachver": 7728,
      "ĠSprachass": 7729,
      "ĠSprachauf": 7730,
      "ĠSprachaufgaben": 7731,
      "ĠSprachregeln": 7732,
      "ĠEines": 7733,
      "ĠEinheiten": 7734,
      "nendliche": 7735,
      "ĠAufforderung": 7736,
      "ends": 7737,
      "ortance": 7738,
      "spez": 7739,
      "springen": 7740,
      "olp": 7741,
      "ĠÃ¼berein": 7742,
      "ĠÃ¼bersetz": 7743,
      "ĠÃ¼bersieht": 7744,
      "ĠÃ¼berrasch": 7745,
      "ĠÃ¼bersetzt": 7746,
      "formen": 7747,
      "ĠHabe": 7748,
      "ĠHÃ¶ch": 7749,
      "ĠHeat": 7750,
      "ĠHÃ¤l": 7751,
      "ĠHunder": 7752,
      "ĠHardware": 7753,
      "ĠHÃ¼gel": 7754,
      "ĠHerkunft": 7755,
      "Ġmeinte": 7756,
      "ive": 7757,
      "Ġhilfs": 7758,
      "zulegen": 7759,
      "zuholen": 7760,
      "ĠBeide": 7761,
      "ittelt": 7762,
      "verb": 7763,
      "ĠVerantwortungsvoll": 7764,
      "ĠVereinfach": 7765,
      "ĠVerhÃ¤lt": 7766,
      "ĠVerfahren": 7767,
      "ĠVerzweif": 7768,
      "spieler": 7769,
      "Ġgek": 7770,
      "Ġgearbeitet": 7771,
      "ĠgeÃ¼bt": 7772,
      "Ġbesagt": 7773,
      "Ġbesuchen": 7774,
      "rauchen": 7775,
      "Ġpop": 7776,
      "rÃ¼fen": 7777,
      "agieren": 7778,
      "modells": 7779,
      "ĠspÃ¤t": 7780,
      "Ġsprachlich": 7781,
      "Ġdurchs": 7782,
      "Ġdurchaus": 7783,
      "Ġdurcharbeitet": 7784,
      "Dieser": 7785,
      "Unterschied": 7786,
      "Ã¶rdern": 7787,
      "Ġdeshalb": 7788,
      "Ġrichtiges": 7789,
      "ĠProblems": 7790,
      "ĠEnt": 7791,
      "ĠEnergie": 7792,
      "ĠEndergebnis": 7793,
      "ĠschlÃ¤": 7794,
      "Ġschweren": 7795,
      "ĠSozial": 7796,
      "ĠOpt": 7797,
      "ĠOverparameterisierung": 7798,
      "ĠOma": 7799,
      "Essen": 7800,
      "Ġmehrfach": 7801,
      "Ġmehrerer": 7802,
      "Ġentsp": 7803,
      "Ġentdeckt": 7804,
      "ĠRede": 7805,
      "ĠRecall": 7806,
      "ĠNeustart": 7807,
      "ĠVorsicht": 7808,
      "ĠVorurteile": 7809,
      "Programmierst": 7810,
      "rÃ¶ÃŁern": 7811,
      "ĠUngleich": 7812,
      "ĠUnderfitting": 7813,
      "Ġnachdenke": 7814,
      "Ġbedeutungsvoll": 7815,
      "Erst": 7816,
      "Ġgelten": 7817,
      "Ġklarste": 7818,
      "reck": 7819,
      "reagieren": 7820,
      "ĠZahlenbereich": 7821,
      "leben": 7822,
      "Ġverbringt": 7823,
      "Ġverbreitet": 7824,
      "Ġverbrauchen": 7825,
      "Ġbestes": 7826,
      "ĠbestmÃ¶g": 7827,
      "ĠMaschinelle": 7828,
      "Ġselben": 7829,
      "Ã¼nd": 7830,
      "Ġabge": 7831,
      "Ġabzu": 7832,
      "Ġabgesch": 7833,
      "Ġablegen": 7834,
      "ĠabhÃ¤ng": 7835,
      "Ġabgest": 7836,
      "Ġabbr": 7837,
      "Ġabsich": 7838,
      "Ġabends": 7839,
      "ĠTrainingsbei": 7840,
      "ĠTrainingsmaterial": 7841,
      "Ġwirkungsvoll": 7842,
      "Ġzusammenpassen": 7843,
      "Ġzusammenfassen": 7844,
      "eisterung": 7845,
      "ĠTextab": 7846,
      "ĠTextteil": 7847,
      "ĠTextzusammen": 7848,
      "Schatz": 7849,
      "Schalter": 7850,
      "Schaden": 7851,
      "Schieber": 7852,
      "ĠEinstellkn": 7853,
      "wertung": 7854,
      "iefem": 7855,
      "ĠRegler": 7856,
      "ĠRegularisierung": 7857,
      "ĠRegulierung": 7858,
      "ĠBildanalyse": 7859,
      "ĠBildbesch": 7860,
      "ĠBilddatensatz": 7861,
      "ĠBildfilter": 7862,
      "ĠRechenschritten": 7863,
      "ĠHauptmethode": 7864,
      "ĠHauptzeichen": 7865,
      "ĠHauptteil": 7866,
      "ĠHauptmethoden": 7867,
      "ĠHauptkomponentenanalyse": 7868,
      "ĠHauptaussage": 7869,
      "ĠHauptideen": 7870,
      "ĠZeiten": 7871,
      "ĠZeitabhÃ¤ng": 7872,
      "ĠAusna": 7873,
      "ĠAusnahmen": 7874,
      "ĠAusdruck": 7875,
      "ĠAuswertung": 7876,
      "Siehst": 7877,
      "opf": 7878,
      "Wow": 7879,
      "folger": 7880,
      "ĠlÃ¶scht": 7881,
      "Stellen": 7882,
      "Ġwiedergibt": 7883,
      "Ġwohl": 7884,
      "Ġwoher": 7885,
      "Ġwomit": 7886,
      "ekÃ¼": 7887,
      "Ġgleicht": 7888,
      "Ġgleichzeit": 7889,
      "ĠgleichermaÃŁen": 7890,
      "Ġmalen": 7891,
      "menge": 7892,
      "auso": 7893,
      "Ġbestimmter": 7894,
      "ĠProdukt": 7895,
      "acken": 7896,
      "ackel": 7897,
      "Ġverschiedener": 7898,
      "artpunkt": 7899,
      "artiges": 7900,
      "anders": 7901,
      "stÃ¤ndlich": 7902,
      "Ġgemachten": 7903,
      "Ã¤hnliche": 7904,
      "Ġihres": 7905,
      "Ġbenimmt": 7906,
      "undene": 7907,
      "Manche": 7908,
      "ĠBericht": 7909,
      "barn": 7910,
      "ĠGruppenarbeit": 7911,
      "ĠGruppenanalyse": 7912,
      "ĠAnfragen": 7913,
      "ĠVortrainiertes": 7914,
      "ĠVortrainierten": 7915,
      "ĠTestmethoden": 7916,
      "ĠTestlÃ¤ufe": 7917,
      "ĠSchritts": 7918,
      "sucht": 7919,
      "ĠAbend": 7920,
      "ĠAbschalten": 7921,
      "ĠAbschnitten": 7922,
      "lernende": 7923,
      "inneren": 7924,
      "Ġfeststellen": 7925,
      "Ġfestgel": 7926,
      "Ġfestzulegen": 7927,
      "Abgesehen": 7928,
      "gerichtet": 7929,
      "iener": 7930,
      "ienkur": 7931,
      "ĠReise": 7932,
      "Ġeinfacherer": 7933,
      "Ġeinfacheres": 7934,
      "Ġstabilen": 7935,
      "proben": 7936,
      "probierst": 7937,
      "Ġweiterlernt": 7938,
      "eiÃŁig": 7939,
      "ĠKontakt": 7940,
      "Ġbaum": 7941,
      "Ã¤llen": 7942,
      "ReprÃ¤sent": 7943,
      "flung": 7944,
      "volle": 7945,
      "Ġbeschrieben": 7946,
      "ĠZusammenspiel": 7947,
      "Versteht": 7948,
      "Verwechslungs": 7949,
      "Ġherang": 7950,
      "Ġherstellt": 7951,
      "Ġsicheres": 7952,
      "Ġsichergestellt": 7953,
      "ĠGrundregeln": 7954,
      "ĠGrundeinstellung": 7955,
      "ĠGrundanweisung": 7956,
      "Datensammlung": 7957,
      "bungslos": 7958,
      "ruh": 7959,
      "eutig": 7960,
      "Ġkonnte": 7961,
      "Spann": 7962,
      "Spur": 7963,
      "Ãľberhaupt": 7964,
      "ĠFaltungsschichten": 7965,
      "Anleitung": 7966,
      "Anwendung": 7967,
      "Indem": 7968,
      "Intern": 7969,
      "Interess": 7970,
      "zeitiges": 7971,
      "ĠBeob": 7972,
      "ĠBeobacht": 7973,
      "oppeln": 7974,
      "ĠInfo": 7975,
      "Ġverhinderst": 7976,
      "ĠKÃ¼nstler": 7977,
      "Meiner": 7978,
      "Prozess": 7979,
      "Regulierung": 7980,
      "Steigung": 7981,
      "Startpunkt": 7982,
      "attform": 7983,
      "ĠnÃ¼tzt": 7984,
      "Ġlanger": 7985,
      "Ġrede": 7986,
      "Ġrevolution": 7987,
      "Ġberechn": 7988,
      "erfindet": 7989,
      "ĠBestÃ¤rkendem": 7990,
      "ĠWortauswahl": 7991,
      "Ġangepasste": 7992,
      "ĠZuverlÃ¤s": 7993,
      "ĠÃ¤hnliches": 7994,
      "wandt": 7995,
      "ĠsorgfÃ¤lt": 7996,
      "ĠverlÃ¤uft": 7997,
      "ĠverlÃ¤sst": 7998,
      "ĠOptimierern": 7999,
      "Ġkomplexer": 8000,
      "akten": 8001,
      "Ġtieferen": 8002,
      "Ġteste": 8003,
      "Ġteure": 8004,
      "Ġteuer": 8005,
      "Ġgewinnen": 8006,
      "rÃ¤gt": 8007,
      "Neue": 8008,
      "allgemein": 8009,
      "ĠmÃ¶glicherweise": 8010,
      "Aufnahmen": 8011,
      "anker": 8012,
      "Ġniemand": 8013,
      "ĠMeinungen": 8014,
      "ĠPrÃ¼fungen": 8015,
      "Ã¤tzt": 8016,
      "Ġvermeide": 8017,
      "ctor": 8018,
      "Ġschaust": 8019,
      "ĠanfÃ¤llig": 8020,
      "ĠBedeutungs": 8021,
      "Batches": 8022,
      "Ġhofft": 8023,
      "ĠÃĦpfel": 8024,
      "endest": 8025,
      "aufwendig": 8026,
      "ĠbewÃ¤hr": 8027,
      "Ġbewirkt": 8028,
      "wiederkehr": 8029,
      "Ġunbegrenz": 8030,
      "ative": 8031,
      "atives": 8032,
      "ettern": 8033,
      "Ġinnere": 8034,
      "ĠgefÃ¤llt": 8035,
      "ĠgefÃ¤lsch": 8036,
      "ĠZusammenhangs": 8037,
      "ĠfleiÃŁig": 8038,
      "Ġunseres": 8039,
      "rinken": 8040,
      "Ġungef": 8041,
      "Ġlesbar": 8042,
      "Dazu": 8043,
      "fassungen": 8044,
      "punktzahl": 8045,
      "Ġmusstest": 8046,
      "Ġperfektes": 8047,
      "Ġwahrscheinlichste": 8048,
      "Ġverringere": 8049,
      "ĠEntwicklern": 8050,
      "ĠPunktzahl": 8051,
      "Denkweise": 8052,
      "Sobald": 8053,
      "yperparamet": 8054,
      "romisse": 8055,
      "Ġunterschiedlicher": 8056,
      "ĠSpielfeld": 8057,
      "ĠDaher": 8058,
      "ĠNullpunkt": 8059,
      "ressieren": 8060,
      "ĠGesam": 8061,
      "ĠGesetze": 8062,
      "ĠGesellschaft": 8063,
      "Ġtypischen": 8064,
      "ĠzusammenhÃ¤ngend": 8065,
      "ĠRegelbuch": 8066,
      "Tokenisierung": 8067,
      "Fehlerfunktion": 8068,
      "FehlerÃ¼bersicht": 8069,
      "antwortung": 8070,
      "ĠEigenes": 8071,
      "ĠEigenstÃ¤ndigkeit": 8072,
      "ĠEigenheiten": 8073,
      "Ġvergeht": 8074,
      "ĠvergrÃ¶ÃŁern": 8075,
      "ĠThemen": 8076,
      "projekte": 8077,
      "ĠKlassen": 8078,
      "ĠKlettern": 8079,
      "ĠstÃ¤ndige": 8080,
      "ĠstÃ¤ndiger": 8081,
      "Ġgeschieht": 8082,
      "Ġgeschult": 8083,
      "ĠgeschÃ¼tzt": 8084,
      "Ġgeschafft": 8085,
      "konfig": 8086,
      "kleiner": 8087,
      "Ġweite": 8088,
      "eldet": 8089,
      "Ġachtest": 8090,
      "schnitte": 8091,
      "wachtem": 8092,
      "zufinden": 8093,
      "Ġbehandelt": 8094,
      "ĠzurÃ¼cklie": 8095,
      "ĠzurÃ¼ckgerechnet": 8096,
      "ĠzurÃ¼ckzugehen": 8097,
      "ĠDiskriminators": 8098,
      "ĠKompass": 8099,
      "ĠKompromisse": 8100,
      "ĠGedanke": 8101,
      "ĠRichtlinien": 8102,
      "Ġextremen": 8103,
      "fusion": 8104,
      "kehrt": 8105,
      "Ġlogischen": 8106,
      "ĠBeginn": 8107,
      "ĠBegeisterung": 8108,
      "ĠNerven": 8109,
      "ĠNervennetzen": 8110,
      "ungsfÃ¤higer": 8111,
      "ĠspÃ¤teren": 8112,
      "lÃ¤ss": 8113,
      "selbe": 8114,
      "ĠMesszahl": 8115,
      "Ġfaires": 8116,
      "Ġbeibehalten": 8117,
      "ĠGeschlecht": 8118,
      "ĠSchloss": 8119,
      "ĠAufmerksamkeitsmechanismus": 8120,
      "Ġsprichst": 8121,
      "Guten": 8122,
      "codieren": 8123,
      "Ġmeistern": 8124,
      "Ġgetestet": 8125,
      "ĠKochbuch": 8126,
      "ĠVerbessern": 8127,
      "ĠVerbundene": 8128,
      "Ġschlimme": 8129,
      "Ġschlimmsten": 8130,
      "Ġschlimmste": 8131,
      "fÃ¼hlen": 8132,
      "fÃ¼hlessen": 8133,
      "Residualblock": 8134,
      "ĠstÃ¤ndiges": 8135,
      "Steckbrief": 8136,
      "Ġvergleiche": 8137,
      "Ġvergleicht": 8138,
      "ĠLernsysteme": 8139,
      "ĠLernsystems": 8140,
      "Ġflexible": 8141,
      "ĠLieblingsmethode": 8142,
      "ĠLieblingswerkzeug": 8143,
      "neuer": 8144,
      "ĠDecoders": 8145,
      "ĠMarkierer": 8146,
      "Ġverwalten": 8147,
      "ĠKopien": 8148,
      "Ġallgemeines": 8149,
      "Ġallgemeinere": 8150,
      "ĠRÃ¼ckmelde": 8151,
      "Ġautomatischen": 8152,
      "kÃ¼rzen": 8153,
      "wichtigste": 8154,
      "Ġgestalten": 8155,
      "Ġbehebst": 8156,
      "Ġerlauben": 8157,
      "Ġreinen": 8158,
      "Ġreinkommt": 8159,
      "riften": 8160,
      "Ġniedrige": 8161,
      "soÃŁe": 8162,
      "ĠUmsetzung": 8163,
      "ĠUmgebungen": 8164,
      "iehbar": 8165,
      "Ġkorrekt": 8166,
      "ĠAudi": 8167,
      "ĠNachfrage": 8168,
      "ĠNachricht": 8169,
      "ĠUnterart": 8170,
      "ĠUnterscheiden": 8171,
      "ĠUntergruppen": 8172,
      "ĠUntersuchung": 8173,
      "Speichers": 8174,
      "Boxen": 8175,
      "tiefe": 8176,
      "tiefer": 8177,
      "Ġdauern": 8178,
      "ĠzufÃ¤lligen": 8179,
      "ĠProbieren": 8180,
      "ĠAlles": 8181,
      "ĠAllgemein": 8182,
      "ĠTechniker": 8183,
      "ĠauswÃ¤hle": 8184,
      "Ã¼nschte": 8185,
      "Ġkomplettes": 8186,
      "ĠHauptunterschiede": 8187,
      "Belohnungsgestaltung": 8188,
      "Ġtypischerweise": 8189,
      "Ġaufteilt": 8190,
      "Ġauftreten": 8191,
      "ĠClub": 8192,
      "ĠÃĦnderung": 8193,
      "ĠPlans": 8194,
      "ĠWerkzeugkasten": 8195,
      "ĠKlassifik": 8196,
      "ĠBegriffe": 8197,
      "Naja": 8198,
      "Wirklich": 8199,
      "Ġraten": 8200,
      "Ġrauf": 8201,
      "ĠSVMs": 8202,
      "Ġunwichtigen": 8203,
      "Ġvorhandene": 8204,
      "ĠHundetyp": 8205,
      "Ġwiederholt": 8206,
      "Ġwiederholen": 8207,
      "ĠAblÃ¤ufen": 8208,
      "ĠÃ¼bliche": 8209,
      "ĠÃ¼blicher": 8210,
      "Arbeits": 8211,
      "reibungen": 8212,
      "Infos": 8213,
      "volutionÃ¤ren": 8214,
      "Eingangs": 8215,
      "GrundsÃ¤tzlich": 8216,
      "Wahrscheinlichkeiten": 8217,
      "literatur": 8218,
      "ationsmatrix": 8219,
      "Ġprobierst": 8220,
      "Ġabweicht": 8221,
      "Ġabwechseln": 8222,
      "ĠabwÃ¤gen": 8223,
      "ĠArbeitsspeicher": 8224,
      "ĠStandardwerten": 8225,
      "Ġgrundlegenden": 8226,
      "Feindliches": 8227,
      "Gewichten": 8228,
      "Ġcool": 8229,
      "ĠJahre": 8230,
      "Ġwollte": 8231,
      "Ġglatt": 8232,
      "Ġkomische": 8233,
      "ĠhÃ¤ttest": 8234,
      "ĠKleiner": 8235,
      "ĠKleinigkeiten": 8236,
      "ĠAnwendungsf": 8237,
      "amtlÃ¤nge": 8238,
      "Stapelverarbeitung": 8239,
      "Ġeffiziente": 8240,
      "Strafen": 8241,
      "Strafe": 8242,
      "Strafpunkt": 8243,
      "manchmal": 8244,
      "Ġvereinfacht": 8245,
      "Ġallerletz": 8246,
      "ĠObjekte": 8247,
      "Nervenz": 8248,
      "zweiflung": 8249,
      "ichtete": 8250,
      "ĠMaschinenlern": 8251,
      "ĠWinkels": 8252,
      "ĠComputergehirnen": 8253,
      "ĠErkennung": 8254,
      "ĠHundebilder": 8255,
      "ĠBilderkennungsnetze": 8256,
      "ĠVorhersageprogramme": 8257,
      "ĠSchlÃ¼sselwÃ¶rter": 8258,
      "Ġvoraussagen": 8259,
      "neuronales": 8260,
      "Eingabewerte": 8261,
      "EingabekapazitÃ¤t": 8262,
      "GedÃ¤chtnisverst": 8263,
      "Ġnachvollziehbar": 8264,
      "binÃ¤re": 8265,
      "Ġideale": 8266,
      "ĠLebens": 8267,
      "Ġhierher": 8268,
      "ĠAbstand": 8269,
      "ĠBasiswert": 8270,
      "ĠProgrammierern": 8271,
      "ĠProgrammierprojekt": 8272,
      "Ġoptimiert": 8273,
      "Ġoptimieren": 8274,
      "Ġoptimiere": 8275,
      "Ġoptimierte": 8276,
      "Ġerwartete": 8277,
      "Ġerwarteten": 8278,
      "ĠVersuchen": 8279,
      "ĠRecheneinheiten": 8280,
      "Ġbegrenzte": 8281,
      "Convolutions": 8282,
      "Vorzeitiges": 8283,
      "book": 8284,
      "blicken": 8285,
      "liest": 8286,
      "liegt": 8287,
      "lieÃŁband": 8288,
      "ĠevolutionÃ¤re": 8289,
      "ĠevolutionÃ¤ren": 8290,
      "Ġewiger": 8291,
      "Ġsaubere": 8292,
      "ĠLaien": 8293,
      "ĠCards": 8294,
      "Ġklassischen": 8295,
      "Ġregeln": 8296,
      "ĠprÃ¤ziser": 8297,
      "ĠprÃ¤zisere": 8298,
      "Ġverbessere": 8299,
      "ĠProzesse": 8300,
      "ĠKontextvektor": 8301,
      "Ġherumprobieren": 8302,
      "ĠberÃ¼cksichtigen": 8303,
      "ĠverlÃ¤ssliche": 8304,
      "Ġungenaue": 8305,
      "ĠUngewÃ¶hnlichem": 8306,
      "Obwohl": 8307,
      "Platz": 8308,
      "Ġkochst": 8309,
      "Ġvertraut": 8310,
      "ĠGelerntes": 8311,
      "ĠGutes": 8312,
      "Ġvielseitig": 8313,
      "Ġgenutzten": 8314,
      "Ġredet": 8315,
      "ĠHinweise": 8316,
      "Ġgezwungen": 8317,
      "ĠGegenspieler": 8318,
      "ĠGesamtpunktzahl": 8319,
      "Ġempfiehlst": 8320,
      "Ġenormen": 8321,
      "Sprachmodelle": 8322,
      "Beschreibe": 8323,
      "Durchgang": 8324,
      "Optimierung": 8325,
      "positiven": 8326,
      "ĠnÃ¤mlich": 8327,
      "ĠDokumente": 8328,
      "itionellen": 8329,
      "ĠExperten": 8330,
      "aucht": 8331,
      "gedÃ¤chtnis": 8332,
      "ĠvielfÃ¤ltige": 8333,
      "ĠvielfÃ¤ltiger": 8334,
      "ĠSpezielle": 8335,
      "Ġruhig": 8336,
      "Ġruhige": 8337,
      "Ġruhiger": 8338,
      "ĠAnstatt": 8339,
      "ĠAnstieg": 8340,
      "ĠÃ¼bertrainiertes": 8341,
      "ĠAbwÃ¤gung": 8342,
      "Ġspezifische": 8343,
      "ĠGehirnzellen": 8344,
      "ĠSicherheitskopien": 8345,
      "LLMs": 8346,
      "Aktivierungsfunktion": 8347,
      "Aktivierungsrekorder": 8348,
      "Aktivierungsfunktionen": 8349,
      "Rekurrentes": 8350,
      "falls": 8351,
      "ĠeinzuschÃ¤tzen": 8352,
      "Ġbremst": 8353,
      "igentlich": 8354,
      "Ġunverzichtbar": 8355,
      "Ġunerwarteten": 8356,
      "ĠLogik": 8357,
      "Ġlustigen": 8358,
      "ĠWetterdaten": 8359,
      "ĠFachliteratur": 8360,
      "ĠChaos": 8361,
      "ĠZwischenspeicher": 8362,
      "Ġumgekehrt": 8363,
      "ĠaufzuhÃ¶ren": 8364,
      "Ġgespielt": 8365,
      "Ġgespeichertes": 8366,
      "ĠzusammengefÃ¼hrt": 8367,
      "Ġselbstlernenden": 8368,
      "ĠWiederverwenden": 8369,
      "ĠProzentsatz": 8370,
      "Ġkonkretes": 8371,
      "Ġherauszufiltern": 8372,
      "ĠFehlerkorrektur": 8373,
      "ĠendgÃ¼ltigen": 8374,
      "Ġgesammelter": 8375,
      "ĠWirkung": 8376,
      "ĠungestÃ¶rtes": 8377,
      "Ġreduziert": 8378,
      "ĠEmpfehlung": 8379,
      "Apfel": 8380,
      "Aktivierung": 8381,
      "bildung": 8382,
      "linearen": 8383,
      "perfekt": 8384,
      "zeichnet": 8385,
      "ĠUnendliche": 8386,
      "Ġdrehen": 8387,
      "Ġdreht": 8388,
      "Ġirgendwie": 8389,
      "Ġeinheitlicher": 8390,
      "Ġmussten": 8391,
      "Ġmarkiert": 8392,
      "Ġmarkieren": 8393,
      "Ġbastle": 8394,
      "ĠzugÃ¤ng": 8395,
      "ĠSortieren": 8396,
      "ĠSortierung": 8397,
      "ĠLieber": 8398,
      "ĠLiegt": 8399,
      "ĠverÃ¤nderte": 8400,
      "ĠverÃ¤nderten": 8401,
      "Ġverzweifelt": 8402,
      "ĠWochenende": 8403,
      "ĠKennst": 8404,
      "ĠKennnumm": 8405,
      "Ġschicken": 8406,
      "Ġschickst": 8407,
      "Ġsogenannte": 8408,
      "Ġausgewogen": 8409,
      "Ġstockt": 8410,
      "ĠstoÃŁen": 8411,
      "Ġversteckter": 8412,
      "ĠStrategien": 8413,
      "sprechen": 8414,
      "Ġdurcheinanderbringen": 8415,
      "Ġseltsame": 8416,
      "AbkÃ¼rzung": 8417,
      "AbkÃ¼rzungen": 8418,
      "Ġweiterleiten": 8419,
      "Ġweiterentwickelte": 8420,
      "Ġkontrollieren": 8421,
      "Informationen": 8422,
      "Startwert": 8423,
      "ĠgewÃ¶hnen": 8424,
      "Ġgewichteten": 8425,
      "Ġwissenschaftliche": 8426,
      "KÃ¶nigin": 8427,
      "ĠEntscheidungsbÃ¤umen": 8428,
      "projekten": 8429,
      "ĠSchlussfolger": 8430,
      "ĠRegressionsaufgaben": 8431,
      "ĠRegressionsmodells": 8432,
      "schlÃ¤ge": 8433,
      "Ġfehlerhaften": 8434,
      "Ġmittleren": 8435,
      "Ġdanebenliegt": 8436,
      "Ġignoriert": 8437,
      "Ġmoralisch": 8438,
      "Ġmoralische": 8439,
      "ĠTaschenrechner": 8440,
      "Abstieg": 8441,
      "Abstimmung": 8442,
      "Experte": 8443,
      "Nachts": 8444,
      "RÃ¼ckpropagation": 8445,
      "RÃ¼ckruf": 8446,
      "bekommen": 8447,
      "groÃŁe": 8448,
      "mehrere": 8449,
      "Ġorganis": 8450,
      "Ġdichtes": 8451,
      "Ġdigitaler": 8452,
      "Ġdigitales": 8453,
      "Ġwinzig": 8454,
      "Ġeingehenden": 8455,
      "Ġmischt": 8456,
      "Ġmischst": 8457,
      "Ġgoldene": 8458,
      "Ġgeringere": 8459,
      "Ġgruppieren": 8460,
      "Ġbackst": 8461,
      "Ġzeichnen": 8462,
      "Ġzeichne": 8463,
      "Ġleeren": 8464,
      "Ġlineare": 8465,
      "Ġlinearen": 8466,
      "ĠAktienkur": 8467,
      "schlaues": 8468,
      "Ġverdichtet": 8469,
      "Ġverantwortlich": 8470,
      "Ġverantwortungsbew": 8471,
      "ĠGanze": 8472,
      "Ġansiehst": 8473,
      "ĠZusatzwert": 8474,
      "ĠSchnitt": 8475,
      "ĠSchnappschuss": 8476,
      "ĠSchraubenzie": 8477,
      "Wiederkehrender": 8478,
      "Ġvorzubereiten": 8479,
      "Ġreibungslos": 8480,
      "Einbettungen": 8481,
      "ĠÃ¼berwachtem": 8482,
      "ĠÃ¼berwachstes": 8483,
      "Ġgezielte": 8484,
      "Ġjeweils": 8485,
      "Ġjeweiligen": 8486,
      "ĠUngerechtigkeit": 8487,
      "ĠUngerechtigkeiten": 8488,
      "ĠTrainingszeiten": 8489,
      "ĠTrainingsdurchlauf": 8490,
      "ĠTrainingsdurchlÃ¤ufe": 8491,
      "ĠWiederkehrenden": 8492,
      "ĠWiederkehrendes": 8493,
      "Ġgemischt": 8494,
      "ĠbenÃ¶tigen": 8495,
      "ĠAbsprache": 8496,
      "ĠAbsprachen": 8497,
      "Ġspezialisiert": 8498,
      "Ġhervorheben": 8499,
      "Spieler": 8500,
      "Ġbevorzugt": 8501,
      "Ġzurechtkommt": 8502,
      "ĠKaffeemaschine": 8503,
      "Ġvergangene": 8504,
      "Ġvergangenen": 8505,
      "ĠmenschenÃ¤hnlichen": 8506,
      "ĠDatenpakete": 8507,
      "Bedeutung": 8508,
      "Ġhandhab": 8509,
      "Ġhandhaben": 8510,
      "ĠWiederherstellen": 8511,
      "ĠhinzufÃ¼gen": 8512,
      "GruppengrÃ¶ÃŁe": 8513,
      "ĠOriginalbild": 8514,
      "ĠhartnÃ¤ckig": 8515,
      "Baukasten": 8516,
      "Cluster": 8517,
      "Decis": 8518,
      "Gener": 8519,
      "Kernel": 8520,
      "Klassifik": 8521,
      "Pruning": 8522,
      "Sortierung": 8523,
      "Thema": 8524,
      "Werden": 8525,
      "Warmup": 8526,
      "drehen": 8527,
      "kodiert": 8528,
      "merz": 8529,
      "richtigen": 8530,
      "Ġchaot": 8531,
      "Ġdefiniert": 8532,
      "Ġeindeutig": 8533,
      "Ġbahnbr": 8534,
      "Ġzeitlichen": 8535,
      "Ġkriege": 8536,
      "ĠMÃ¤nner": 8537,
      "ĠMillionen": 8538,
      "Ġfortschritt": 8539,
      "Ġfarbige": 8540,
      "ĠLabyrin": 8541,
      "ĠLeistungsfÃ¤higkeit": 8542,
      "alitÃ¤tsred": 8543,
      "Ġholen": 8544,
      "ĠPartner": 8545,
      "ĠPaketen": 8546,
      "ĠPotenzial": 8547,
      "ĠPrivatleben": 8548,
      "schlagewerk": 8549,
      "ĠBedingungen": 8550,
      "ĠDatenstÃ¼cke": 8551,
      "ĠTÃ¶ne": 8552,
      "ĠGenauso": 8553,
      "ĠNÃ¤he": 8554,
      "ĠNotebook": 8555,
      "Ġinhaltlich": 8556,
      "Ġanzeigt": 8557,
      "ĠanpassungsfÃ¤higer": 8558,
      "Ġsoziale": 8559,
      "ĠImportance": 8560,
      "ĠZuneigung": 8561,
      "ĠVarianten": 8562,
      "ĠLernumgebung": 8563,
      "ĠausgefÃ¼hrt": 8564,
      "Ġsteilsten": 8565,
      "Ġermittelt": 8566,
      "Ġerleichtern": 8567,
      "Ġerfordern": 8568,
      "Ġvorgegebene": 8569,
      "ĠAnzeige": 8570,
      "ĠÃ¼berschreiten": 8571,
      "ĠÃ¼berhebliche": 8572,
      "ĠÃ¼bersichtlicher": 8573,
      "ĠInformationsfluss": 8574,
      "ĠschwÃ¤cher": 8575,
      "ĠUnsicherheit": 8576,
      "Ġnachzudenken": 8577,
      "Ġabgelenkt": 8578,
      "Ġzusammenzuarbeiten": 8579,
      "ĠbekÃ¤me": 8580,
      "Ġdieselben": 8581,
      "Verdichter": 8582,
      "Vergiss": 8583,
      "ĠKatzenfan": 8584,
      "Ġbevorzugten": 8585,
      "Ġverlangsamen": 8586,
      "Ġexperimentiere": 8587,
      "ĠÃĦhnlich": 8588,
      "kontrolle": 8589,
      "ĠzurÃ¼ckverfolgt": 8590,
      "ĠUmwandlung": 8591,
      "Ġendlosen": 8592,
      "ĠÃ¼bernehmen": 8593,
      "Ġgeradlinig": 8594,
      "ĠWissensdatenbanken": 8595,
      "ĠWarnsignal": 8596,
      "ĠRekurrenten": 8597,
      "ĠregelmÃ¤ÃŁig": 8598,
      "ĠvielfÃ¤ltigere": 8599,
      "ĠAbweichung": 8600,
      "ĠDrehbÃ¼cher": 8601,
      "ĠGewohnheiten": 8602,
      "Schwankungen": 8603,
      "Ġeinzigartige": 8604,
      "Ġrealistische": 8605,
      "Ġdetaillierte": 8606,
      "ĠLangzeitspeicher": 8607,
      "ĠBibliothek": 8608,
      "Ġstufenweise": 8609,
      "Ġexponentiell": 8610,
      "ĠWerbetexte": 8611,
      "Activ": 8612,
      "BestÃ¤rkendes": 8613,
      "Bagging": 8614,
      "Bruder": 8615,
      "BPTT": 8616,
[...]
